[unused]	0
[unk]	0
[pad]	0
[sep]	0
[cls]	0
[mask]	0
.	-3.28483
▁of	-3.35199
▁the	-3.38272
,	-3.52773
▁and	-3.62241
▁in	-3.8948
-	-3.92752
▁to	-4.31399
▁a	-4.45438
▁(	-4.55744
▁with	-4.6964
s	-4.70208
)	-4.85062
▁for	-4.95267
▁was	-5.0309
▁The	-5.06203
▁were	-5.12574
▁is	-5.26371
▁that	-5.29914
▁by	-5.32343
▁on	-5.54851
▁patients	-5.70482
▁as	-5.70606
▁from	-5.72167
▁	-5.82256
▁are	-5.89871
▁or	-5.92731
▁an	-5.95192
/	-5.96487
▁be	-5.9663
▁at	-6.00438
▁A	-6.05938
:	-6.14542
▁In	-6.17618
▁this	-6.20001
▁study	-6.25876
▁not	-6.30482
▁cells	-6.31832
2	-6.44551
▁between	-6.46676
▁have	-6.49852
▁which	-6.50739
).	-6.52453
1	-6.55538
▁than	-6.58593
▁after	-6.58743
▁We	-6.6083
▁treatment	-6.62566
;	-6.62621
),	-6.62668
'	-6.66627
▁cell	-6.66648
▁=	-6.67621
▁these	-6.73354
P	-6.73884
▁using	-6.76108
▁been	-6.7685
▁has	-6.76885
▁but	-6.76898
▁we	-6.77221
▁This	-6.77918
▁results	-6.81593
▁P	-6.83092
▁C	-6.83316
▁may	-6.84192
▁two	-6.87535
▁group	-6.87605
▁their	-6.87761
ing	-6.87893
▁during	-6.90613
▁2	-6.90614
▁also	-6.91377
▁can	-6.9138
▁had	-6.91433
▁used	-6.92026
▁disease	-6.92884
▁both	-6.94844
▁high	-6.95453
▁1	-6.96254
▁more	-6.9692
▁activity	-6.97293
A	-6.98245
▁protein	-6.98812
▁analysis	-7.02338
p	-7.02347
C	-7.04023
▁T	-7.04425
▁expression	-7.04967
▁associated	-7.05252
▁data	-7.07278
▁clinical	-7.07428
▁levels	-7.0865
▁increased	-7.09139
n	-7.09728
▁significantly	-7.09824
▁3	-7.10005
3	-7.11282
(	-7.12186
▁all	-7.12723
▁effects	-7.13459
▁effect	-7.13638
▁non	-7.13831
▁found	-7.13957
▁compared	-7.14491
▁p	-7.1486
▁other	-7.15462
▁cancer	-7.15834
▁significant	-7.16548
▁studies	-7.16649
S	-7.17232
ed	-7.17697
▁no	-7.18209
▁B	-7.18408
▁human	-7.18598
▁different	-7.20707
▁time	-7.21204
▁its	-7.21955
▁showed	-7.22661
a	-7.23316
▁RESULTS	-7.23744
d	-7.24382
▁one	-7.25599
▁risk	-7.26212
▁years	-7.2667
▁it	-7.27244
▁use	-7.27343
▁control	-7.29147
D	-7.29794
▁into	-7.29937
e	-7.31022
ly	-7.32304
▁These	-7.33526
▁age	-7.34886
▁gene	-7.35778
▁well	-7.36286
▁higher	-7.3715
-1	-7.37184
▁cases	-7.39275
▁patient	-7.39347
▁model	-7.40934
▁observed	-7.41101
▁blood	-7.41548
▁METHODS	-7.41687
▁only	-7.42568
▁S	-7.4338
▁rate	-7.43482
▁most	-7.4353
▁response	-7.43791
H	-7.4415
▁system	-7.446
▁groups	-7.45743
▁low	-7.45778
B	-7.46108
▁role	-7.47139
▁present	-7.47324
4	-7.48887
▁three	-7.49553
▁acid	-7.49791
▁health	-7.4999
▁such	-7.50813
▁<	-7.51376
▁4	-7.51965
▁To	-7.52053
▁when	-7.52376
▁who	-7.52488
T	-7.52561
▁factors	-7.52574
▁first	-7.53084
▁therapy	-7.53514
L	-7.54704
▁function	-7.55454
▁new	-7.55838
▁method	-7.56316
▁those	-7.56503
▁changes	-7.57033
▁respectively	-7.57318
▁5	-7.58071
▁increase	-7.58332
▁development	-7.58677
▁However	-7.58905
al	-7.5893
▁N	-7.60609
▁D	-7.60751
R	-7.61517
▁children	-7.63015
▁E	-7.63148
c	-7.63249
▁total	-7.63626
N	-7.63764
▁growth	-7.64805
▁I	-7.65496
▁care	-7.66009
▁H	-7.6622
▁potential	-7.6689
▁normal	-7.67018
▁DNA	-7.67252
▁factor	-7.67634
▁performed	-7.68058
▁level	-7.68158
▁among	-7.68247
▁L	-7.68529
▁could	-7.68814
O	-7.69253
▁6	-7.69967
▁case	-7.70364
g	-7.70594
▁number	-7.70987
m	-7.71428
▁mice	-7.71513
▁+/-	-7.71592
▁important	-7.71991
▁tumor	-7.72163
in	-7.72445
i	-7.72555
M	-7.72925
▁within	-7.73335
▁over	-7.73771
▁type	-7.73843
▁M	-7.73992
▁lower	-7.74467
▁women	-7.75152
▁through	-7.75548
▁10	-7.77259
▁CONCLUSIONS	-7.77306
▁receptor	-7.78589
▁tissue	-7.79204
▁without	-7.79335
induced	-7.79445
▁It	-7.80538
▁mg	-7.80599
▁did	-7.80765
I	-7.8084
▁rats	-7.81131
▁months	-7.81411
▁including	-7.81457
▁suggest	-7.81488
▁h	-7.82501
▁identified	-7.8295
▁less	-7.83248
▁each	-7.84037
▁our	-7.84137
▁G	-7.84386
r	-7.84521
▁reported	-7.85036
▁days	-7.85498
or	-7.85805
F	-7.86742
▁diagnosis	-7.86866
▁test	-7.87081
▁there	-7.87333
▁anti	-7.8742
▁findings	-7.87713
▁under	-7.87823
▁proteins	-7.87905
▁mean	-7.88644
▁based	-7.8889
▁presence	-7.89281
▁infection	-7.89311
▁single	-7.90005
▁primary	-7.91287
▁reduced	-7.91317
▁specific	-7.91519
ic	-7.91672
▁treated	-7.92177
▁early	-7.93212
▁surgery	-7.93239
▁population	-7.93319
▁differences	-7.93456
▁evidence	-7.93547
▁genes	-7.93553
up	-7.94328
▁similar	-7.94522
▁obtained	-7.94669
▁species	-7.94777
▁"	-7.94778
▁serum	-7.9507
▁some	-7.95667
▁drug	-7.9572
b	-7.95881
▁while	-7.96053
▁[	-7.96408
l	-7.96418
▁conditions	-7.96601
o	-7.96793
▁due	-7.9693
▁decreased	-7.96976
▁related	-7.97269
▁BACKGROUND	-7.97687
▁binding	-7.98281
based	-7.98296
▁dose	-7.98327
▁concentration	-7.98373
▁brain	-7.98404
▁about	-7.98579
▁measured	-7.99198
▁review	-7.99394
"	-7.99565
▁show	-7.99606
5	-7.99665
▁long	-7.99703
▁liver	-7.9977
E	-8.00005
▁concentrations	-8.00121
▁following	-8.00217
▁studied	-8.00737
▁plasma	-8.00755
G	-8.01032
▁There	-8.01368
▁should	-8.01397
▁addition	-8.01672
▁acute	-8.01847
▁report	-8.02052
▁K	-8.02229
▁induced	-8.02241
▁re	-8.02559
▁CD	-8.02848
▁survival	-8.0397
▁subjects	-8.04068
K	-8.04132
▁revealed	-8.04137
▁CONCLUSION	-8.04405
▁chronic	-8.04483
▁vitro	-8.04757
t	-8.05604
▁developed	-8.0578
▁investigated	-8.05843
▁period	-8.05918
▁bone	-8.05923
▁positive	-8.06011
▁activation	-8.06091
▁per	-8.06285
▁F	-8.06351
▁demonstrated	-8.06956
▁research	-8.07468
er	-8.08342
▁surface	-8.08456
▁complex	-8.0855
▁samples	-8.08784
▁7	-8.0898
▁post	-8.09466
▁they	-8.10071
▁large	-8.1039
▁common	-8.10982
▁major	-8.11021
▁structure	-8.11263
▁against	-8.11333
]	-8.11371
▁8	-8.11661
▁small	-8.11788
▁approach	-8.11795
6	-8.12236
▁molecular	-8.12299
▁pressure	-8.13141
▁examined	-8.13375
▁determine	-8.13771
▁evaluated	-8.14083
▁Our	-8.14374
▁functional	-8.14566
▁determined	-8.15415
▁pain	-8.15633
▁vs	-8.15738
y	-8.1582
▁CI	-8.16165
▁rates	-8.1641
▁further	-8.16637
▁values	-8.16789
▁beta	-8.16964
▁methods	-8.16997
▁either	-8.17179
▁alpha	-8.17189
▁syndrome	-8.17338
▁formation	-8.17346
▁An	-8.17355
▁included	-8.17392
▁process	-8.17439
▁information	-8.17964
▁production	-8.18443
▁pre	-8.18447
dependent	-8.18781
▁before	-8.18817
▁rat	-8.19041
▁effective	-8.19213
▁stress	-8.20115
▁same	-8.20378
▁membrane	-8.20459
▁body	-8.20517
▁R	-8.20728
▁muscle	-8.21028
▁four	-8.21261
es	-8.2131
▁whether	-8.21375
▁provide	-8.21696
▁symptoms	-8.22246
▁12	-8.22442
▁water	-8.22572
▁ratio	-8.22578
▁quality	-8.22667
▁shown	-8.22971
▁novel	-8.23093
▁virus	-8.23434
▁20	-8.23443
related	-8.23575
▁II	-8.23735
▁various	-8.23903
▁weight	-8.2401
▁up	-8.2413
▁exposure	-8.24277
▁follow	-8.24325
▁greater	-8.24424
term	-8.24545
▁c	-8.24623
-2	-8.24838
▁properties	-8.24978
▁IL	-8.25176
▁will	-8.25459
▁management	-8.25827
▁responses	-8.26157
V	-8.26239
▁heart	-8.26462
▁detected	-8.26563
▁involved	-8.268
▁multiple	-8.26961
▁phase	-8.27145
▁mechanisms	-8.27258
▁range	-8.27293
h	-8.27629
▁several	-8.27734
▁mechanism	-8.28149
▁change	-8.28307
▁medical	-8.28351
▁known	-8.28874
▁vivo	-8.28885
▁possible	-8.29183
▁V	-8.29238
▁out	-8.2927
specific	-8.29306
▁current	-8.29506
▁reduction	-8.29567
▁mortality	-8.29607
year	-8.3012
▁association	-8.30582
▁whereas	-8.30687
▁O	-8.30736
▁weeks	-8.3074
to	-8.30902
▁lung	-8.3094
▁difference	-8.31402
▁any	-8.31541
▁region	-8.32065
▁resistance	-8.32129
▁9	-8.32222
▁loss	-8.32273
▁imaging	-8.32347
▁size	-8.32431
▁±	-8.3281
▁renal	-8.33024
▁s	-8.33886
▁life	-8.34248
▁models	-8.34349
▁controls	-8.34634
▁assessed	-8.34724
▁All	-8.35564
▁injury	-8.35756
▁surgical	-8.36094
▁isolated	-8.36352
▁mass	-8.36915
▁AND	-8.36962
▁flow	-8.36969
7	-8.37214
▁genetic	-8.3754
▁95%	-8.37612
▁enzyme	-8.37924
▁30	-8.38089
▁reaction	-8.3812
▁performance	-8.38336
▁technique	-8.38402
ation	-8.38942
kg	-8.39195
▁outcomes	-8.39637
▁15	-8.3969
▁relationship	-8.39851
▁analyzed	-8.39876
▁breast	-8.39908
▁many	-8.39926
▁contrast	-8.40037
▁severe	-8.40083
▁active	-8.40171
▁detection	-8.40373
▁diseases	-8.40509
▁work	-8.40654
▁characteristics	-8.40799
▁support	-8.40818
▁value	-8.40887
▁inhibition	-8.40993
▁OBJECTIVE	-8.41396
▁X	-8.41754
▁outcome	-8.42112
▁evaluate	-8.42358
▁parameters	-8.42517
▁For	-8.43032
▁area	-8.43037
▁self	-8.43207
▁n	-8.43309
▁24	-8.4383
▁presented	-8.43862
▁status	-8.43943
▁decrease	-8.43952
▁site	-8.4403
▁de	-8.44053
▁g	-8.44446
▁HIV	-8.4452
▁Although	-8.44597
▁lesions	-8.44626
▁form	-8.44991
▁day	-8.45026
▁indicate	-8.45069
▁via	-8.45599
▁family	-8.46597
▁experimental	-8.46712
▁evaluation	-8.46825
▁systems	-8.46836
▁required	-8.46839
▁Ca	-8.4687
▁left	-8.4692
▁co	-8.47027
▁therapeutic	-8.47654
▁very	-8.47811
▁healthy	-8.47958
▁caused	-8.47979
▁incidence	-8.48052
▁carcinoma	-8.48495
▁sequence	-8.48513
▁administration	-8.48959
▁male	-8.49048
▁cardiac	-8.4931
▁tumors	-8.49361
▁negative	-8.4954
▁influence	-8.49652
▁frequency	-8.49736
▁highly	-8.5005
?	-8.50334
▁immuno	-8.505
like	-8.50732
▁sensitivity	-8.5076
▁No	-8.50907
▁previously	-8.5092
▁result	-8.51083
▁synthesis	-8.51169
▁release	-8.51362
▁correlation	-8.51568
▁followed	-8.51594
▁distribution	-8.51637
▁second	-8.51694
th	-8.51784
▁tested	-8.51793
▁however	-8.51878
+	-8.51944
▁order	-8.52189
▁glucose	-8.52341
▁being	-8.52524
▁animals	-8.52766
▁general	-8.52923
▁death	-8.52932
▁considered	-8.52934
▁m	-8.53235
▁described	-8.53251
▁target	-8.53366
▁hospital	-8.53397
▁assay	-8.53611
▁sites	-8.53896
▁because	-8.53946
▁mRNA	-8.54003
▁diabetes	-8.54057
v	-8.54385
▁impact	-8.54398
▁insulin	-8.54416
▁drugs	-8.54563
▁investigate	-8.54606
▁Here	-8.54702
▁combination	-8.54911
(2)	-8.54955
▁state	-8.55264
▁available	-8.55449
8	-8.55572
▁types	-8.55673
▁failure	-8.55818
▁adult	-8.55998
▁identify	-8.56115
▁complications	-8.56177
▁skin	-8.56235
x	-8.56512
▁assessment	-8.56612
▁assess	-8.56638
▁U	-8.56723
▁pathway	-8.56878
▁cause	-8.57076
▁improved	-8.57184
▁men	-8.57361
▁standard	-8.57449
▁better	-8.57472
▁After	-8.5767
us	-8.57761
▁received	-8.57812
▁expressed	-8.57825
▁interaction	-8.58073
▁min	-8.58087
▁ability	-8.58135
▁prevalence	-8.58269
▁receptors	-8.584
▁micro	-8.58486
▁produced	-8.58692
▁artery	-8.59077
▁content	-8.59648
▁disorders	-8.59867
▁light	-8.59987
▁features	-8.60007
▁end	-8.60241
▁aim	-8.60351
▁sample	-8.60453
▁how	-8.60763
▁immune	-8.61023
▁volume	-8.61496
▁At	-8.61538
▁if	-8.61749
▁individuals	-8.61829
▁un	-8.62157
▁activities	-8.62246
▁conducted	-8.62686
f	-8.62753
▁pulmonary	-8.62757
▁stage	-8.6318
▁cellular	-8.63181
▁stimulation	-8.63184
▁temperature	-8.6323
▁efficacy	-8.63243
▁oral	-8.6358
▁mouse	-8.63585
▁index	-8.63592
▁physical	-8.636
type	-8.63857
▁correlated	-8.63981
▁need	-8.64108
▁individual	-8.64128
▁increasing	-8.64144
▁RNA	-8.64292
▁literature	-8.64372
▁likely	-8.64468
▁relative	-8.64572
▁five	-8.64592
▁indicated	-8.64744
9	-8.64747
▁cross	-8.65227
▁demonstrate	-8.65346
▁18	-8.65372
▁overall	-8.65393
▁energy	-8.66187
▁Patients	-8.66227
▁pattern	-8.66373
▁>	-8.66525
▁neurons	-8.66684
▁versus	-8.67005
▁year	-8.67194
▁kinase	-8.67218
▁part	-8.67275
▁tissues	-8.67311
ity	-8.67472
▁procedure	-8.67504
▁signaling	-8.67543
▁compounds	-8.67669
▁vascular	-8.67872
▁field	-8.68057
OR	-8.6846
▁-	-8.68554
▁least	-8.68608
▁coronary	-8.68634
▁antibodies	-8.68638
▁where	-8.68694
▁central	-8.68822
▁strains	-8.6904
▁female	-8.69151
▁analyses	-8.69257
old	-8.6944
▁mm	-8.69566
X	-8.69614
▁initial	-8.69646
▁16	-8.69706
▁patterns	-8.69869
▁characterized	-8.69953
▁behavior	-8.70067
▁amino	-8.70424
▁sub	-8.70442
▁direct	-8.70528
▁improve	-8.70608
▁regulation	-8.70835
▁might	-8.70869
▁often	-8.70888
▁short	-8.70966
▁antibody	-8.71101
▁14	-8.71167
alpha	-8.71295
▁practice	-8.71298
▁events	-8.7145
▁pH	-8.71465
▁combined	-8.71594
▁underwent	-8.71681
▁applied	-8.71706
on	-8.71786
▁diagnostic	-8.71818
▁average	-8.71835
▁techniques	-8.72416
▁action	-8.72447
▁local	-8.7251
▁As	-8.72604
beta	-8.72608
▁inhibitor	-8.72651
▁free	-8.72677
▁interactions	-8.72679
▁culture	-8.72691
▁comparison	-8.72771
▁made	-8.72867
▁degrees	-8.73099
▁intervention	-8.73338
▁processes	-8.73867
▁good	-8.74007
▁multi	-8.74152
▁do	-8.74321
▁occurred	-8.74323
▁d	-8.74448
▁regions	-8.74616
▁5-	-8.74711
▁Furthermore	-8.75079
cell	-8.75086
▁given	-8.75234
▁paper	-8.75617
▁useful	-8.75837
▁adults	-8.76009
▁containing	-8.76072
▁Two	-8.7613
▁11	-8.76309
▁would	-8.76364
▁tests	-8.76418
▁agents	-8.7667
▁biological	-8.76686
▁proliferation	-8.76944
▁areas	-8.77158
▁right	-8.77304
▁trials	-8.77309
mediated	-8.77428
▁resulted	-8.77665
▁affected	-8.77784
▁score	-8.7779
▁recent	-8.77793
▁screening	-8.77842
▁knowledge	-8.78006
▁application	-8.7858
▁even	-8.78791
▁i	-8.79126
▁damage	-8.79132
▁density	-8.79132
▁social	-8.7924
is	-8.79455
▁seen	-8.79486
▁regression	-8.7949
▁discussed	-8.7976
▁enhanced	-8.79987
▁participants	-8.80018
▁poly	-8.80125
▁inhibited	-8.80227
▁confirmed	-8.80419
▁collected	-8.80495
ally	-8.80618
▁trial	-8.80634
▁suggesting	-8.80649
▁history	-8.8065
▁apoptosis	-8.80658
ization	-8.80764
▁metabolism	-8.80776
▁experiments	-8.80784
▁measurements	-8.80811
▁times	-8.80848
▁'	-8.8087
▁length	-8.81212
▁structures	-8.81401
▁mutations	-8.81545
▁strain	-8.81647
▁increases	-8.81684
▁Using	-8.81705
▁On	-8.81706
W	-8.81818
▁nerve	-8.81934
▁understanding	-8.82297
▁baseline	-8.82339
▁six	-8.82604
▁suggested	-8.82653
▁measures	-8.82745
▁then	-8.82958
▁complete	-8.82961
▁duration	-8.83359
▁antigen	-8.83379
▁suggests	-8.83407
re	-8.83434
yl	-8.83538
▁proposed	-8.83617
able	-8.83872
▁calcium	-8.8388
▁inflammatory	-8.83998
▁peripheral	-8.84094
▁(1	-8.84166
▁differentiation	-8.84305
▁training	-8.84486
▁previous	-8.84864
an	-8.84979
J	-8.85056
▁independent	-8.85079
▁50	-8.85112
▁disorder	-8.85214
▁so	-8.85305
▁basis	-8.85517
▁pregnancy	-8.8556
▁oxygen	-8.85677
▁CT	-8.86291
▁main	-8.86452
▁Thus	-8.86507
▁secondary	-8.86795
▁transcription	-8.86811
▁limited	-8.86856
▁critical	-8.86867
Y	-8.87003
▁One	-8.87028
▁does	-8.87093
▁visual	-8.87116
II	-8.87168
▁across	-8.87299
▁key	-8.87343
▁injection	-8.87558
MS	-8.87603
▁lipid	-8.87693
▁design	-8.87768
▁examination	-8.8777
▁them	-8.87841
day	-8.87906
▁signal	-8.8818
▁scores	-8.88181
▁experience	-8.88268
ate	-8.88323
▁essential	-8.88406
▁J	-8.88575
▁inter	-8.88613
-3	-8.88826
▁provides	-8.88829
▁metabolic	-8.89062
▁components	-8.89139
▁selected	-8.89242
1,	-8.89322
▁t	-8.89338
▁hyper	-8.89404
▁side	-8.89542
▁infections	-8.89703
▁functions	-8.8977
▁25	-8.89979
Q	-8.90028
um	-8.90082
▁affect	-8.90248
▁When	-8.90251
▁acids	-8.9036
▁structural	-8.90364
▁established	-8.90381
▁postoperative	-8.90497
▁13	-8.90502
▁domain	-8.90719
▁40	-8.90762
▁molecules	-8.90799
▁peptide	-8.90988
▁solution	-8.91022
▁exercise	-8.91271
▁di	-8.91304
▁approximately	-8.91459
▁lines	-8.91474
▁lead	-8.91583
▁pathways	-8.9167
▁x	-8.91731
▁controlled	-8.91786
▁sex	-8.91944
▁intra	-8.91982
▁alone	-8.91998
min	-8.92098
▁testing	-8.92291
▁additional	-8.92399
▁according	-8.92465
▁criteria	-8.92596
▁inhibitors	-8.92744
▁W	-8.92921
▁rapid	-8.92974
β	-8.92999
▁improvement	-8.93077
▁pro	-8.93093
▁electron	-8.93226
▁kidney	-8.93366
▁series	-8.93408
▁play	-8.9361
▁future	-8.93742
▁line	-8.93823
▁100	-8.93847
▁describe	-8.94028
▁thus	-8.94144
▁populations	-8.94423
▁strategies	-8.94655
CD	-8.94746
▁reduce	-8.94802
▁17	-8.94944
▁community	-8.94959
▁induction	-8.95298
▁especially	-8.95368
▁still	-8.9538
▁food	-8.95525
▁fluid	-8.95607
▁rare	-8.95611
▁hours	-8.95612
▁ventricular	-8.95863
▁progression	-8.95965
▁e	-8.96138
▁stem	-8.96197
▁chain	-8.96292
▁although	-8.96469
▁absence	-8.96488
2)	-8.96531
▁problems	-8.96731
di	-8.96759
▁nuclear	-8.96841
▁delivery	-8.96934
ers	-8.97057
▁hypertension	-8.97502
fold	-8.97723
▁importance	-8.9795
▁resulting	-8.98052
▁diet	-8.98085
▁markers	-8.9843
▁Results	-8.98479
▁respiratory	-8.98506
▁interval	-8.98582
▁young	-8.98595
▁article	-8.98736
ml	-8.98812
▁cycle	-8.9899
one	-8.98992
▁transport	-8.99032
▁provided	-8.99163
▁uptake	-8.99322
▁cardiovascular	-8.9935
▁capacity	-8.99427
▁defined	-8.99486
▁bacterial	-8.99726
▁procedures	-8.99971
▁course	-9.00011
▁older	-9.00175
▁19	-9.00382
▁medium	-9.00444
▁Of	-9.00488
▁daily	-9.00549
▁Both	-9.00583
▁coli	-9.00676
▁remains	-9.01066
▁products	-9.01131
▁hormone	-9.01163
▁depression	-9.0127
▁mutation	-9.01299
▁Health	-9.01458
▁randomized	-9.01458
▁elevated	-9.01582
▁cost	-9.01629
▁chemotherapy	-9.01714
▁achieved	-9.02046
▁transfer	-9.02192
▁doses	-9.02277
▁diagnosed	-9.02425
▁derived	-9.02658
10	-9.02671
▁prior	-9.02686
▁natural	-9.02732
▁median	-9.02772
2,	-9.02844
▁chemical	-9.02873
▁cohort	-9.02928
▁examine	-9.02976
free	-9.02986
▁myocardial	-9.03118
▁recovery	-9.03153
▁cognitive	-9.03206
▁condition	-9.03209
▁open	-9.03248
▁+	-9.03295
▁sequences	-9.03381
ine	-9.03839
▁transplantation	-9.03857
▁2-	-9.03997
=	-9.04215
▁radiation	-9.04298
▁endothelial	-9.04438
▁poor	-9.04516
▁set	-9.04683
k	-9.04763
▁degree	-9.04844
▁safety	-9.04988
▁program	-9.05024
1)	-9.05034
▁Moreover	-9.05128
▁magnetic	-9.05349
▁people	-9.05415
▁inflammation	-9.05462
▁simple	-9.05953
▁purpose	-9.05994
▁1,	-9.06101
▁OF	-9.06112
▁cerebral	-9.06126
▁variation	-9.06231
▁dysfunction	-9.06293
▁gastric	-9.06467
▁aged	-9.06508
▁secretion	-9.06549
associated	-9.06598
en	-9.06666
▁plant	-9.06798
▁upon	-9.06877
▁μ	-9.06886
▁host	-9.06921
▁stroke	-9.06952
▁systemic	-9.07348
▁repair	-9.07369
▁particular	-9.07423
▁variables	-9.07486
▁calculated	-9.07622
▁stable	-9.07747
▁sensitive	-9.07889
▁point	-9.07965
▁consistent	-9.08041
▁trans	-9.08148
w	-9.08415
▁60	-9.08599
▁adverse	-9.08675
▁component	-9.08676
▁With	-9.08957
▁double	-9.08981
▁particularly	-9.09004
▁21	-9.09078
▁highest	-9.0918
▁identification	-9.09262
▁specificity	-9.09429
▁statistically	-9.09486
2+	-9.09539
▁motor	-9.09644
▁whole	-9.09751
▁Clinical	-9.09794
▁needed	-9.09954
▁conventional	-9.1019
▁carried	-9.10601
▁prevention	-9.1061
▁b	-9.10642
positive	-9.10769
▁infants	-9.10865
▁strong	-9.11022
▁intracellular	-9.11138
▁measure	-9.11269
▁distinct	-9.1145
▁onset	-9.11549
▁monitoring	-9.11559
▁alcohol	-9.11571
▁include	-9.11668
▁animal	-9.1175
▁administered	-9.11767
▁r	-9.11958
▁therefore	-9.11958
▁epithelial	-9.12043
▁measurement	-9.12063
▁develop	-9.12065
▁recorded	-9.12401
▁severity	-9.12439
α	-9.12684
▁arterial	-9.12799
▁quantitative	-9.12809
▁III	-9.12833
▁anterior	-9.12909
2-	-9.13035
▁few	-9.13072
▁causes	-9.13093
ated	-9.13141
▁toxicity	-9.1316
▁exposed	-9.13277
▁wild	-9.13281
▁bio	-9.13364
▁viral	-9.13385
▁mutant	-9.13507
▁cm	-9.13525
id	-9.13577
▁exhibited	-9.13627
CI	-9.1364
▁estimated	-9.13839
CT	-9.13941
▁amount	-9.14239
U	-9.14248
▁microscopy	-9.14273
▁education	-9.14302
▁PURPOSE	-9.14404
▁class	-9.14474
▁Therefore	-9.14623
▁indicating	-9.14913
▁(95%	-9.15028
▁environment	-9.15106
▁bacteria	-9.15271
▁regarding	-9.15416
▁spinal	-9.1543
▁survey	-9.15474
Z	-9.15715
▁Re	-9.15744
▁resonance	-9.15793
50	-9.1584
▁hepatic	-9.15903
▁contribute	-9.16098
▁laboratory	-9.16105
▁problem	-9.16156
ol	-9.16214
▁terms	-9.16356
▁much	-9.16433
▁3-	-9.16468
▁approaches	-9.16512
▁developing	-9.16534
1-	-9.16587
▁environmental	-9.16641
treated	-9.16745
at	-9.16787
▁necessary	-9.1692
0	-9.17115
▁forms	-9.17254
▁stability	-9.17272
▁fat	-9.17314
▁occur	-9.17387
▁complexes	-9.17409
▁alternative	-9.17472
▁head	-9.17497
▁late	-9.17569
▁matrix	-9.17605
▁intake	-9.17702
▁relatively	-9.17815
▁able	-9.17935
▁neuro	-9.17975
▁underlying	-9.1801
▁best	-9.18066
▁recently	-9.18364
▁subsequent	-9.18384
▁sodium	-9.18547
▁(2	-9.18591
▁strategy	-9.1866
▁maximum	-9.18682
▁hand	-9.18717
▁position	-9.18725
▁having	-9.18842
▁memory	-9.18882
methyl	-9.19081
▁source	-9.19208
▁extent	-9.19291
▁together	-9.19523
▁involvement	-9.1953
ion	-9.19542
dimensional	-9.19781
▁compare	-9.19858
▁prostate	-9.19901
▁authors	-9.19914
▁carbon	-9.2009
▁modified	-9.20129
ia	-9.20132
co	-9.20199
▁directly	-9.20216
the	-9.20248
▁During	-9.20255
▁hypothesis	-9.20292
▁dependent	-9.20318
▁prospective	-9.20397
▁malignant	-9.20687
▁sleep	-9.20767
▁cholesterol	-9.20853
▁frequently	-9.21018
-6	-9.21032
▁Among	-9.21188
▁enzymes	-9.21204
▁advanced	-9.21291
▁investigation	-9.21304
▁urinary	-9.21399
▁genome	-9.21479
▁appropriate	-9.21519
▁tool	-9.21597
▁males	-9.21686
▁accuracy	-9.21785
▁little	-9.2182
▁Na	-9.21875
time	-9.21906
▁along	-9.21964
▁By	-9.2207
▁0	-9.2221
▁efficiency	-9.22264
▁females	-9.22358
▁placebo	-9.22474
▁accumulation	-9.22506
▁linear	-9.22509
▁confidence	-9.22613
▁appears	-9.22641
▁mitochondrial	-9.22659
▁means	-9.22692
▁selective	-9.22747
▁activated	-9.22756
▁(3	-9.22761
▁material	-9.22809
▁leading	-9.22818
▁selection	-9.22974
▁help	-9.23004
▁students	-9.23039
▁relevant	-9.23052
▁isolates	-9.23162
ness	-9.23172
▁22	-9.23193
▁images	-9.23326
▁birth	-9.23356
▁moderate	-9.23598
▁internal	-9.2371
▁designed	-9.23793
▁corresponding	-9.23921
▁composition	-9.24073
▁lesion	-9.24116
▁lack	-9.24238
▁Treatment	-9.24277
53	-9.24287
▁mental	-9.2429
▁reactions	-9.24342
▁cortex	-9.24453
▁predicted	-9.24466
▁peak	-9.24552
▁DESIGN	-9.24957
ized	-9.25009
▁mainly	-9.25114
▁reviewed	-9.25172
▁objective	-9.25485
▁network	-9.25647
▁processing	-9.25742
▁Y	-9.25931
▁diabetic	-9.26252
▁inhibitory	-9.26262
▁scale	-9.26522
binding	-9.26631
▁physiological	-9.26678
▁liquid	-9.26774
▁(5	-9.26777
▁fatty	-9.2691
▁interventions	-9.26948
▁shows	-9.26951
▁relation	-9.2699
▁lymph	-9.27093
▁phosphorylation	-9.27174
▁substrate	-9.27215
▁infected	-9.27325
▁laser	-9.27332
▁electro	-9.27385
ray	-9.27449
▁reference	-9.27507
ase	-9.27554
▁agent	-9.27633
st	-9.27683
▁profile	-9.2788
▁wall	-9.27984
▁resection	-9.28067
▁New	-9.28109
▁origin	-9.28302
▁oxidative	-9.28307
▁tract	-9.28315
▁fraction	-9.28499
▁public	-9.28822
▁Three	-9.28887
▁unique	-9.28935
▁strongly	-9.29058
▁dynamics	-9.29094
▁aspects	-9.29141
▁real	-9.29158
▁since	-9.29194
▁meta	-9.29199
▁intensity	-9.29422
▁treatments	-9.29457
▁later	-9.29486
▁half	-9.29492
▁mediated	-9.29502
range	-9.29606
▁chromatography	-9.29669
▁smoking	-9.29675
▁induce	-9.2969
▁determination	-9.29866
▁full	-9.3005
▁remained	-9.30078
▁transmission	-9.301
▁recurrence	-9.30313
▁unit	-9.30527
▁applications	-9.30621
▁significance	-9.30667
▁ion	-9.30743
▁larger	-9.30754
▁%	-9.31001
▁learning	-9.31059
▁iron	-9.31188
▁Z	-9.31243
▁metal	-9.31346
▁responsible	-9.31352
▁partial	-9.3147
▁must	-9.31474
▁fluorescence	-9.31735
ive	-9.3178
q	-9.3181
▁unknown	-9.3197
▁child	-9.32054
▁Data	-9.32063
il	-9.3211
derived	-9.32185
▁removal	-9.322
▁PCR	-9.3228
▁fetal	-9.32436
▁third	-9.32512
▁cultures	-9.32575
▁reports	-9.32689
12	-9.32715
▁tomography	-9.32742
▁variety	-9.32752
▁OBJECTIVES	-9.32834
▁generated	-9.32946
▁cervical	-9.32967
▁intestinal	-9.32967
▁aortic	-9.33323
▁Co	-9.33343
IL	-9.33381
▁stages	-9.33457
▁specimens	-9.33566
ating	-9.33569
▁old	-9.33572
▁clinically	-9.33576
▁proportion	-9.33878
▁(1)	-9.33933
mean	-9.34082
▁assays	-9.34176
▁promoter	-9.34216
▁lateral	-9.3427
▁above	-9.34387
▁services	-9.34531
▁strength	-9.34606
▁percentage	-9.34667
▁power	-9.34693
▁generation	-9.34713
▁28	-9.34753
▁Group	-9.34758
▁degradation	-9.34764
▁extracellular	-9.34774
▁medicine	-9.34947
▁photo	-9.34965
▁regulatory	-9.3497
▁biopsy	-9.35166
▁thyroid	-9.35167
de	-9.35209
▁percent	-9.35246
▁week	-9.35259
▁aimed	-9.35398
▁plants	-9.35403
▁hepatitis	-9.35482
);	-9.35519
▁led	-9.35538
▁marker	-9.35891
▁ng	-9.35953
▁cord	-9.35956
▁consumption	-9.35991
▁mechanical	-9.36116
line	-9.36208
▁maternal	-9.36396
▁last	-9.36463
-4	-9.365
▁neural	-9.3655
▁attention	-9.36577
▁longer	-9.36922
▁pancreatic	-9.37054
▁CO	-9.37077
▁rather	-9.37096
▁Further	-9.3716
▁image	-9.37162
▁Study	-9.372
▁upper	-9.3737
▁sp	-9.37411
▁prognosis	-9.37473
▁48	-9.37478
▁undergoing	-9.37487
of	-9.37575
▁residues	-9.37667
▁implications	-9.37699
▁produce	-9.37822
▁deficiency	-9.37994
▁seven	-9.38096
▁prevent	-9.38109
▁manner	-9.38172
▁transition	-9.38204
▁pathogenesis	-9.38268
▁effectiveness	-9.38302
▁majority	-9.38321
40	-9.38465
▁cultured	-9.38593
▁elderly	-9.38743
▁gamma	-9.38764
▁receiving	-9.38886
▁efficient	-9.39094
▁contact	-9.391
▁product	-9.3932
▁eight	-9.39532
▁Effect	-9.39578
▁neuronal	-9.39739
u	-9.39773
▁β	-9.39809
▁countries	-9.39897
▁focus	-9.39982
▁conclusion	-9.40435
▁oxide	-9.40484
▁detect	-9.40562
▁abnormalities	-9.40705
▁operation	-9.40884
▁commonly	-9.40886
▁differential	-9.40921
▁optimal	-9.40951
▁MRI	-9.40966
▁basal	-9.40997
▁wide	-9.41175
16	-9.41258
▁occurs	-9.41364
characterization	-9.41375
▁vitamin	-9.41447
▁nature	-9.41463
▁gender	-9.41491
▁continuous	-9.41498
▁vaccine	-9.41544
▁involving	-9.4157
▁collagen	-9.4162
▁taken	-9.41649
▁eye	-9.4166
▁NO	-9.41742
▁migration	-9.41811
▁prepared	-9.41875
▁graft	-9.41892
▁materials	-9.41901
▁published	-9.41912
▁phenotype	-9.42181
▁task	-9.42285
▁They	-9.42377
▁obesity	-9.42447
▁IV	-9.42452
▁posterior	-9.42527
▁retrospective	-9.42698
▁spatial	-9.42771
z	-9.42782
▁23	-9.42784
▁chromosome	-9.42791
▁formed	-9.42983
▁affinity	-9.43003
▁0.05).	-9.43178
▁staining	-9.43357
▁successful	-9.43402
▁solid	-9.43431
▁mild	-9.43589
terminal	-9.43705
▁prognostic	-9.43722
▁morbidity	-9.43755
▁(2)	-9.43817
▁conclude	-9.43929
▁located	-9.43966
▁recombinant	-9.44064
HR	-9.44138
▁(4	-9.44194
▁benefit	-9.44347
▁potentially	-9.44491
▁access	-9.44551
▁sexual	-9.4465
▁temporal	-9.44763
▁1-	-9.44981
▁asthma	-9.45112
HT	-9.45123
▁humans	-9.45133
ur	-9.45143
▁marrow	-9.45253
▁yet	-9.45339
▁here	-9.45498
▁trauma	-9.45642
▁kg	-9.45725
▁clear	-9.45753
▁questionnaire	-9.4579
▁From	-9.45886
▁peptides	-9.4589
▁now	-9.45922
▁organic	-9.45979
and	-9.46031
▁abdominal	-9.46141
age	-9.46158
▁joint	-9.46253
▁abnormal	-9.46345
▁predictive	-9.46445
▁absorption	-9.46447
▁evolution	-9.46482
▁nano	-9.46514
▁become	-9.46695
▁altered	-9.46913
▁nursing	-9.46953
▁certain	-9.46984
▁dynamic	-9.47006
▁frequent	-9.47014
▁compound	-9.47107
▁infusion	-9.47123
▁35	-9.4713
et	-9.47198
▁white	-9.47312
▁infarction	-9.47449
▁molecule	-9.47452
▁tumour	-9.47479
▁air	-9.47546
▁relationships	-9.47588
ment	-9.47692
▁interest	-9.4771
▁channel	-9.47834
▁man	-9.47847
▁26	-9.47992
▁respect	-9.48004
▁mixed	-9.48038
▁leads	-9.48064
▁alterations	-9.48121
▁layer	-9.48137
▁lymphocytes	-9.48169
▁completed	-9.482
▁dietary	-9.48205
▁tri	-9.48236
▁gel	-9.48308
▁nm	-9.48498
▁While	-9.48573
▁expected	-9.48613
▁Most	-9.4867
▁successfully	-9.48814
▁external	-9.48816
▁near	-9.49024
▁nucleus	-9.49028
20	-9.49034
▁urine	-9.49079
▁predict	-9.49124
▁platelet	-9.49201
it	-9.49374
▁points	-9.49379
▁appear	-9.49415
▁gas	-9.49441
▁pediatric	-9.49517
▁challenge	-9.49572
▁statistical	-9.49595
▁elements	-9.49609
▁toward	-9.49662
▁ultrasound	-9.49721
▁leukemia	-9.49722
▁consecutive	-9.49748
▁recognition	-9.49836
SD	-9.49889
▁dogs	-9.49915
▁theory	-9.49922
▁step	-9.50113
▁difficult	-9.50209
▁impairment	-9.50228
3)	-9.50234
▁protocol	-9.50279
▁membranes	-9.50407
▁potent	-9.50427
▁members	-9.50439
▁particles	-9.50441
ous	-9.5054
▁metastasis	-9.50583
▁red	-9.50666
▁force	-9.50686
▁spectroscopy	-9.50701
▁f	-9.50712
▁global	-9.50714
▁widely	-9.50743
▁impaired	-9.50776
▁ligand	-9.50844
▁core	-9.50863
▁purified	-9.50973
▁states	-9.51109
▁context	-9.51112
(-1)	-9.51163
▁cortical	-9.51289
▁Analysis	-9.51385
▁resolution	-9.51385
▁divided	-9.51392
▁organ	-9.51398
▁living	-9.51495
▁roles	-9.51496
▁PD	-9.51505
▁Effects	-9.51582
▁way	-9.51616
▁variable	-9.51744
▁ovarian	-9.51799
▁defects	-9.5211
▁constant	-9.52244
3,	-9.52261
▁grade	-9.52355
▁base	-9.52373
▁dental	-9.52437
▁reducing	-9.52475
▁classification	-9.52488
-10	-9.52566
▁recurrent	-9.52604
▁Finally	-9.5288
▁device	-9.52932
▁invasive	-9.53017
▁injuries	-9.53019
mL	-9.53168
▁biochemical	-9.53217
▁(6	-9.53361
▁comparable	-9.53391
ant	-9.53393
(3)	-9.53427
▁generally	-9.53439
▁TNF	-9.53519
no	-9.53603
▁susceptibility	-9.53701
▁50%	-9.5372
▁microM	-9.5376
▁plays	-9.53836
▁macrophages	-9.53871
▁systematic	-9.53935
▁down	-9.54118
▁requires	-9.54136
▁profiles	-9.54141
▁units	-9.54214
▁space	-9.54263
▁past	-9.54332
▁bladder	-9.5436
▁root	-9.54522
▁differ	-9.5457
▁High	-9.54588
OH	-9.54613
▁basic	-9.54767
▁plus	-9.54869
▁around	-9.54916
▁variability	-9.55082
38	-9.55127
▁characteristic	-9.55249
▁occurrence	-9.55278
▁diameter	-9.55324
SS	-9.55408
▁observations	-9.55532
▁optical	-9.55542
-5	-9.55585
▁throughout	-9.55639
▁0.001)	-9.5566
▁soil	-9.55747
▁adhesion	-9.55793
▁nervous	-9.55862
▁represent	-9.55891
▁IgG	-9.56037
▁necrosis	-9.56171
▁account	-9.5631
▁al	-9.56426
▁α	-9.56473
▁rapidly	-9.56694
▁polymerase	-9.56775
▁extract	-9.56882
▁guidelines	-9.56954
▁appeared	-9.56979
▁eyes	-9.57112
▁45	-9.5712
▁neck	-9.57128
▁targets	-9.57133
▁domains	-9.57157
▁another	-9.57187
▁setting	-9.57188
▁4-	-9.57256
PCR	-9.57282
▁extraction	-9.57367
▁home	-9.57414
▁fusion	-9.57441
resistant	-9.57475
▁ischemia	-9.5748
▁anxiety	-9.5748
▁Q	-9.57492
▁heat	-9.575
15	-9.57624
19	-9.57681
▁preparation	-9.57694
▁tolerance	-9.57796
▁linked	-9.57881
▁ATP	-9.58007
▁THE	-9.58146
▁Despite	-9.58199
30	-9.5827
▁costs	-9.58405
▁Hospital	-9.58428
▁safe	-9.58467
▁distal	-9.58488
▁mono	-9.58524
▁promising	-9.58617
▁signals	-9.58682
17	-9.58688
▁MS	-9.58708
▁remain	-9.58897
▁decision	-9.58938
▁27	-9.58947
▁programs	-9.59003
▁allows	-9.59127
▁ratios	-9.59174
▁morphology	-9.59183
PD	-9.59291
18	-9.59307
▁signs	-9.59314
▁usually	-9.59425
(+)	-9.59517
▁stimulated	-9.59521
con	-9.59778
▁inhibit	-9.59836
▁Based	-9.59866
▁success	-9.5989
▁localization	-9.59994
ent	-9.60067
▁behavioral	-9.60122
▁venous	-9.60176
Ca	-9.60199
▁families	-9.6025
EC	-9.60261
▁situ	-9.60402
▁currently	-9.60414
ac	-9.60435
▁ml	-9.60481
▁resistant	-9.6063
▁superior	-9.60696
▁fibrosis	-9.60707
▁mM	-9.60718
▁spontaneous	-9.60725
▁media	-9.60817
ar	-9.60853
negative	-9.60898
▁presentation	-9.60937
▁adolescents	-9.60995
▁minutes	-9.60999
▁replacement	-9.61075
▁32	-9.61156
▁endogenous	-9.61163
▁almost	-9.61169
▁accurate	-9.6121
ii	-9.61218
▁ex	-9.6134
▁needs	-9.61364
▁intravenous	-9.61413
▁hydrogen	-9.6143
▁completely	-9.61539
11	-9.61612
▁tuberculosis	-9.61634
▁donor	-9.61647
▁yield	-9.61746
▁location	-9.61795
▁motion	-9.61819
▁bleeding	-9.61829
▁colon	-9.61864
▁fracture	-9.61938
▁experiment	-9.61985
▁associations	-9.62011
RT	-9.62036
▁protection	-9.6214
III	-9.62259
▁l	-9.62274
▁sources	-9.62349
CO	-9.62361
CA	-9.62374
▁Twenty	-9.62601
▁(10	-9.62651
inflammatory	-9.62653
▁channels	-9.62786
▁physicians	-9.62815
▁explore	-9.62831
▁peri	-9.62882
▁oxidation	-9.62897
▁find	-9.6297
▁specifically	-9.62983
▁spectrum	-9.63075
▁finding	-9.63304
▁numbers	-9.6334
▁reconstruction	-9.63374
▁milk	-9.63473
▁probably	-9.63529
▁Chinese	-9.63529
▁Escherichia	-9.63549
▁make	-9.63591
▁miR	-9.63639
▁computed	-9.63784
▁marked	-9.63912
▁technology	-9.63955
amino	-9.6396
▁ischemic	-9.63971
▁movement	-9.64023
ST	-9.64052
▁metastatic	-9.64234
▁hypo	-9.64275
▁towards	-9.64463
▁Since	-9.64484
▁allow	-9.64501
▁school	-9.64508
▁IFN	-9.64662
month	-9.6469
▁synthesized	-9.64708
▁transient	-9.64748
am	-9.6475
▁Fe	-9.64769
▁analysed	-9.64807
▁center	-9.64868
▁1.5	-9.6489
dose	-9.64892
3-	-9.64986
▁experienced	-9.65045
▁American	-9.65104
▁bi	-9.65176
IV	-9.65177
▁MR	-9.6518
▁nor	-9.65382
le	-9.65416
▁issues	-9.65458
▁36	-9.65515
▁fractures	-9.65538
▁AD	-9.65547
-9	-9.65561
▁thickness	-9.65574
▁every	-9.65579
▁agreement	-9.65616
ary	-9.65704
▁indicates	-9.6576
▁despite	-9.65768
▁discuss	-9.65847
un	-9.65913
itis	-9.65954
▁prolonged	-9.65981
▁noted	-9.66051
▁final	-9.66104
▁exchange	-9.66113
▁contained	-9.66136
sectional	-9.66242
▁intermediate	-9.66309
▁employed	-9.66477
▁apparent	-9.66593
▁middle	-9.66624
▁intact	-9.66653
ad	-9.66677
▁mode	-9.66785
▁recommended	-9.66792
▁0.5	-9.66809
▁knee	-9.66867
▁De	-9.66891
▁protective	-9.66929
ER	-9.67045
▁RT	-9.67101
▁US	-9.67185
▁CA	-9.67194
▁require	-9.67196
▁enhance	-9.67222
▁emergency	-9.67259
▁estimate	-9.67359
▁block	-9.67378
▁oil	-9.67423
▁close	-9.67499
PA	-9.67545
▁variants	-9.67576
▁until	-9.67795
▁developmental	-9.67873
▁37	-9.67902
▁lymphoma	-9.67916
▁understand	-9.6795
▁fully	-9.6797
▁vein	-9.67985
▁mutants	-9.68005
as	-9.68042
▁ethanol	-9.68057
▁preoperative	-9.68109
ism	-9.6814
▁what	-9.68245
hydroxy	-9.6826
▁term	-9.68264
-8	-9.68314
per	-9.68318
▁nanoparticles	-9.6837
▁delayed	-9.68399
▁6-	-9.68441
▁90	-9.68442
▁radical	-9.68493
▁RA	-9.68511
▁pathological	-9.686
▁replication	-9.68616
▁routine	-9.68663
▁randomly	-9.6868
▁derivatives	-9.68684
▁United	-9.68798
▁search	-9.68802
tic	-9.68819
▁cancers	-9.68847
▁benefits	-9.68969
▁stimuli	-9.69018
▁Recent	-9.69034
▁therapies	-9.69125
tri	-9.69157
(2+)	-9.69158
▁whose	-9.69241
70	-9.69254
▁retinal	-9.69264
risk	-9.69426
▁parallel	-9.69496
▁traditional	-9.69533
▁event	-9.69618
▁communication	-9.69686
▁childhood	-9.69814
▁National	-9.69819
4)	-9.69835
▁maintenance	-9.6989
▁genomic	-9.69997
▁para	-9.70063
gamma	-9.70095
▁shock	-9.70209
▁Because	-9.7029
▁antigens	-9.70302
+/-	-9.70302
▁Some	-9.70303
▁wound	-9.70355
▁far	-9.70363
▁fish	-9.70564
▁rise	-9.70587
▁Cu	-9.70608
ial	-9.70632
25	-9.70643
▁node	-9.70691
▁Overall	-9.70691
▁atrial	-9.7073
ex	-9.70826
▁neonatal	-9.70835
▁skeletal	-9.70959
▁providing	-9.7096
▁sequencing	-9.71
▁complication	-9.71028
▁seems	-9.71062
▁synthetic	-9.71082
▁antagonist	-9.71104
-7	-9.71137
▁v	-9.71193
el	-9.71323
▁proximal	-9.71325
▁bilateral	-9.71386
▁observation	-9.71591
▁NF	-9.71642
▁medication	-9.71757
man	-9.71836
▁70	-9.71949
▁induces	-9.71957
Cl	-9.72266
▁pathology	-9.72305
▁like	-9.72362
osis	-9.72376
▁benign	-9.72595
▁bound	-9.72692
▁phosphate	-9.7295
▁gain	-9.73019
ab	-9.73028
▁genotype	-9.73034
rs	-9.73053
▁MATERIALS	-9.73072
▁curve	-9.7312
▁colorectal	-9.73145
US	-9.73158
▁invasion	-9.7325
▁his	-9.73312
▁repeated	-9.73334
▁illness	-9.73388
▁smooth	-9.73444
▁cytokines	-9.73515
▁polymorphism	-9.7355
▁possibility	-9.73654
pro	-9.73666
AT	-9.73682
PS	-9.7371
▁choice	-9.73775
▁(8	-9.73849
group	-9.73882
▁showing	-9.73968
▁spectrometry	-9.73974
▁monoclonal	-9.74127
▁diversity	-9.74196
▁reactive	-9.74262
▁(7	-9.74329
4,	-9.74426
▁matter	-9.74536
▁congenital	-9.74617
▁0.001).	-9.74701
▁valve	-9.74705
▁antibiotic	-9.74735
▁metastases	-9.74739
▁varied	-9.74839
▁Studies	-9.7487
▁fed	-9.74997
▁nurses	-9.75163
DM	-9.75174
14	-9.75178
▁distance	-9.75187
▁Medical	-9.75213
▁fast	-9.75302
▁subunit	-9.75308
phase	-9.75324
27	-9.75348
gastrointestinal	-9.75364
▁31	-9.75451
ta	-9.7551
▁ER	-9.75536
57	-9.7562
mm	-9.75632
▁feeding	-9.75652
▁hip	-9.75654
▁reverse	-9.75671
▁view	-9.75719
ian	-9.75764
▁IN	-9.75847
▁bovine	-9.75867
▁extensive	-9.75911
▁smaller	-9.75962
▁methyl	-9.75966
▁hospitals	-9.76104
▁suitable	-9.76164
▁et	-9.7617
▁markedly	-9.76206
▁metabolites	-9.76207
ectomy	-9.76211
sensitive	-9.76258
▁partially	-9.76313
▁arthritis	-9.76314
▁regulated	-9.76377
13	-9.76431
▁29	-9.76465
▁progressive	-9.76473
▁transcriptional	-9.76516
control	-9.76597
▁separation	-9.76638
NO	-9.76672
▁failed	-9.76705
▁excellent	-9.76709
containing	-9.76713
▁ions	-9.76733
▁great	-9.76783
▁random	-9.76816
▁Human	-9.76838
activated	-9.76887
▁yeast	-9.76894
▁nucleotide	-9.76917
▁propose	-9.76932
RA	-9.76953
▁nine	-9.77001
▁below	-9.77017
ability	-9.77036
▁initiation	-9.77067
protein	-9.77129
▁Western	-9.77137
▁2,	-9.77261
▁contribution	-9.7729
infected	-9.77302
▁targeting	-9.77332
amine	-9.7739
▁added	-9.77415
▁0.05)	-9.77468
▁80	-9.77512
▁reliable	-9.77585
▁regional	-9.77798
▁diffusion	-9.7788
▁month	-9.77951
▁prediction	-9.77974
▁mammalian	-9.77982
▁irradiation	-9.78005
IC	-9.78015
▁ranged	-9.78084
▁promote	-9.78285
▁service	-9.78318
▁primarily	-9.78323
▁exhibit	-9.78384
▁typical	-9.78509
▁concluded	-9.7863
▁murine	-9.78661
▁minimal	-9.78666
▁suppression	-9.78748
21	-9.7878
▁classified	-9.78813
▁airway	-9.78868
week	-9.78947
▁soft	-9.78973
60	-9.78989
▁AT	-9.79026
▁analyze	-9.79089
▁solutions	-9.791
±	-9.79292
ma	-9.79416
▁Only	-9.79433
▁maintained	-9.79454
▁persons	-9.79611
PC	-9.79669
▁perfusion	-9.79696
▁variations	-9.79717
linked	-9.79775
▁slow	-9.79777
▁algorithm	-9.79804
▁cytokine	-9.79815
AP	-9.79869
▁working	-9.79878
ra	-9.79957
▁encoding	-9.80007
▁place	-9.80017
▁sperm	-9.80031
▁Several	-9.80043
▁gland	-9.80071
▁Four	-9.80094
90	-9.80119
▁sufficient	-9.80164
▁limit	-9.80184
est	-9.80186
▁0.01	-9.80255
▁States	-9.80257
▁back	-9.80274
▁antioxidant	-9.80318
▁interleukin	-9.80331
▁dis	-9.80353
▁recognized	-9.8048
analysis	-9.80536
▁unclear	-9.80555
▁ten	-9.80572
▁extra	-9.80608
▁balance	-9.80624
▁threshold	-9.80755
▁amounts	-9.80809
▁enrolled	-9.80832
▁nitrogen	-9.80955
▁toxic	-9.80969
▁targeted	-9.80995
▁enhancement	-9.8101
▁independently	-9.81069
ir	-9.81117
▁workers	-9.81159
▁contain	-9.8123
▁shape	-9.81256
▁intensive	-9.81266
▁probe	-9.81368
▁vessels	-9.81405
▁behaviour	-9.81431
▁psychiatric	-9.8148
▁closely	-9.81489
▁equal	-9.8156
▁Cancer	-9.81563
▁extracts	-9.8162
▁localized	-9.81632
▁microg	-9.81642
▁HLA	-9.81679
%	-9.81814
▁reveal	-9.81935
▁subject	-9.81961
ED	-9.81962
▁extended	-9.82058
ance	-9.8209
▁defect	-9.82115
▁intervals	-9.82122
▁psychological	-9.8214
▁presenting	-9.82159
▁transplant	-9.82265
ene	-9.8229
▁arteries	-9.82314
▁Mean	-9.82616
im	-9.82624
▁influenced	-9.8267
▁behaviors	-9.8267
▁tools	-9.82693
▁kinetics	-9.82707
▁latter	-9.82772
▁occurring	-9.82778
▁sensory	-9.82941
▁shift	-9.82944
lo	-9.82946
▁magnitude	-9.83046
▁growing	-9.83055
▁melanoma	-9.83069
▁Scale	-9.83165
▁histological	-9.83191
▁fibers	-9.83236
ompared	-9.83239
▁dependence	-9.83309
ul	-9.8335
▁(3)	-9.83372
▁devices	-9.83419
▁died	-9.83438
▁deep	-9.83485
▁conserved	-9.83517
▁comparing	-9.8359
▁except	-9.83638
▁fiber	-9.83725
▁≥	-9.83785
▁achieve	-9.83876
▁OR	-9.83955
▁native	-9.84041
▁modification	-9.84069
▁decreases	-9.84122
▁database	-9.84185
▁200	-9.84186
▁framework	-9.84188
CH	-9.84231
▁records	-9.84352
▁radiotherapy	-9.84361
▁hundred	-9.84531
▁Non	-9.84585
▁muscles	-9.84647
▁33	-9.84664
▁spectra	-9.84691
▁identical	-9.84725
regulated	-9.84747
▁velocity	-9.84821
▁serious	-9.84827
▁healing	-9.84941
AD	-9.85029
ium	-9.85084
▁electronic	-9.8522
▁parents	-9.85221
▁implementation	-9.85238
▁discharge	-9.85335
▁maximal	-9.85424
▁predictors	-9.85431
▁injected	-9.85471
▁neurological	-9.85508
▁crystal	-9.8554
▁represents	-9.85689
▁modulation	-9.85695
▁concept	-9.85869
▁Con	-9.85924
▁tyrosine	-9.85956
▁thermal	-9.85992
▁done	-9.86
te	-9.86005
▁(19	-9.86069
▁newly	-9.86097
▁appearance	-9.86176
▁challenges	-9.86249
▁special	-9.86268
▁January	-9.86294
▁affecting	-9.86305
▁earlier	-9.86306
na	-9.86461
BP	-9.86509
▁establish	-9.86518
▁periods	-9.86588
▁diverse	-9.86694
▁obtain	-9.86719
▁allele	-9.86736
▁rabbit	-9.8677
▁measuring	-9.8679
▁dominant	-9.86793
▁largely	-9.86833
▁morphological	-9.86864
▁scanning	-9.86875
▁substantial	-9.86973
▁clearance	-9.8705
▁crucial	-9.87051
▁treat	-9.87066
▁consequences	-9.87196
▁angle	-9.87332
▁antibiotics	-9.87385
level	-9.87423
▁storage	-9.87469
▁multivariate	-9.87478
[	-9.87578
▁remaining	-9.87578
▁example	-9.87615
▁making	-9.87633
▁vector	-9.87667
▁emission	-9.87686
SE	-9.87687
▁positively	-9.87722
▁computer	-9.87778
▁understood	-9.87807
▁national	-9.87854
▁SD	-9.87963
▁PI	-9.88074
scale	-9.8808
AR	-9.88119
ca	-9.88183
▁carotid	-9.88257
▁soluble	-9.88473
▁dopamine	-9.88515
▁logistic	-9.88559
▁stenosis	-9.88593
stage	-9.8863
▁networks	-9.88685
▁sampling	-9.88743
▁organs	-9.88909
▁contains	-9.88937
▁practices	-9.88998
▁describes	-9.89232
▁acquired	-9.89233
▁mid	-9.89256
▁schizophrenia	-9.89284
▁Pre	-9.89294
▁date	-9.89321
▁en	-9.89323
▁aqueous	-9.89422
IR	-9.8944
▁error	-9.89447
▁us	-9.89452
▁admission	-9.89467
▁reproductive	-9.89471
▁estimates	-9.89508
▁European	-9.89521
▁substrates	-9.89546
▁University	-9.89577
▁cannot	-9.89588
▁0.1	-9.89601
▁Pro	-9.89622
▁aging	-9.89657
▁extracted	-9.8972
▁load	-9.89847
▁slightly	-9.89857
▁beneficial	-9.89881
▁address	-9.899
▁comprehensive	-9.89977
▁cluster	-9.90086
▁2.5	-9.90104
me	-9.90123
▁pregnant	-9.90142
▁allowed	-9.90256
▁influenza	-9.90279
▁k	-9.90312
▁implantation	-9.90341
▁viruses	-9.90375
▁act	-9.90389
▁clearly	-9.90476
▁whom	-9.90504
oma	-9.90534
▁explain	-9.90549
▁34	-9.90566
▁transformation	-9.90569
▁stay	-9.9066
65	-9.90692
▁radio	-9.90757
▁vaccination	-9.90772
oid	-9.90893
less	-9.90936
▁surfaces	-9.90942
▁sustained	-9.90982
▁100%	-9.91146
▁ring	-9.91368
▁accompanied	-9.91386
▁healthcare	-9.91548
▁hypoxia	-9.91596
-12	-9.91618
▁occlusion	-9.91681
▁fragment	-9.91714
▁stimulus	-9.91715
▁residual	-9.91722
▁burden	-9.9173
▁decline	-9.91794
PI	-9.91801
▁persistent	-9.91802
▁China	-9.91808
ES	-9.91815
ist	-9.91829
mg	-9.91862
▁UV	-9.921
▁improving	-9.92124
▁consisted	-9.92167
▁others	-9.92174
▁inhibits	-9.92187
▁saline	-9.92226
▁catheter	-9.92249
▁limb	-9.92259
▁PC	-9.92261
▁conversion	-9.92277
▁variant	-9.92297
▁10%	-9.92312
izing	-9.92428
-2-	-9.92485
▁goal	-9.92555
▁fibroblasts	-9.92677
▁characterize	-9.92745
▁actin	-9.92858
▁CYP	-9.92875
▁effectively	-9.92944
state	-9.93065
▁TGF	-9.93085
▁Comparison	-9.93086
ry	-9.93151
▁agonist	-9.93162
ative	-9.93175
▁anesthesia	-9.93181
▁questions	-9.93206
▁fluorescent	-9.93464
▁fixation	-9.93506
▁poorly	-9.93535
▁thought	-9.93549
▁con	-9.93589
▁perceived	-9.9366
▁minor	-9.93781
CC	-9.93873
▁coupled	-9.93876
▁affects	-9.93886
▁confirm	-9.93898
▁Th	-9.93916
▁synthase	-9.93925
▁existing	-9.93951
▁cent	-9.94074
▁SP	-9.9413
▁suppressed	-9.94164
▁height	-9.94199
▁trend	-9.94266
▁displayed	-9.9427
▁cDNA	-9.94442
▁Evaluation	-9.94484
▁Anti	-9.94502
▁perform	-9.94528
▁BMI	-9.94629
▁facilitate	-9.94664
▁mellitus	-9.947
▁bypass	-9.9481
▁longitudinal	-9.94826
▁dehydrogenase	-9.94847
▁implant	-9.94863
28	-9.94868
▁rehabilitation	-9.94917
▁micrograms	-9.94924
▁count	-9.95045
▁receive	-9.9505
▁assigned	-9.95066
▁obese	-9.95095
▁focused	-9.95097
▁symptom	-9.951
▁element	-9.95105
RR	-9.95139
▁infant	-9.95175
▁chest	-9.95252
▁polymorphisms	-9.95281
▁epithelium	-9.95415
▁catalytic	-9.95614
▁band	-9.95631
80	-9.95654
▁clinic	-9.95666
▁regulate	-9.95842
▁dual	-9.95908
ter	-9.9595
sis	-9.95967
mo	-9.95993
MT	-9.95994
▁broad	-9.96029
▁output	-9.96077
▁validity	-9.96106
▁nasal	-9.96129
▁coefficient	-9.96158
▁salt	-9.96164
24	-9.96211
▁excretion	-9.96336
▁determining	-9.96372
▁retention	-9.96388
▁segment	-9.96396
▁amplitude	-9.96413
▁organisms	-9.96466
>	-9.96479
▁Serum	-9.96535
▁frequencies	-9.96556
▁adequate	-9.9663
▁incubation	-9.96645
▁coupling	-9.96653
genic	-9.96655
▁matched	-9.96745
4-	-9.96845
▁65	-9.96913
▁validated	-9.96937
▁organization	-9.96998
▁physician	-9.97067
▁planning	-9.97076
▁capable	-9.97127
▁INTRODUCTION	-9.97151
▁bind	-9.97158
▁bile	-9.97202
▁pharmacokinetic	-9.97228
▁introduced	-9.97249
▁isolation	-9.97287
ch	-9.97307
▁risks	-9.97357
▁correlations	-9.97439
▁younger	-9.97502
▁electrical	-9.97507
CS	-9.97572
▁reliability	-9.97691
▁mothers	-9.97706
▁NMR	-9.97708
▁infectious	-9.97737
▁circulating	-9.97749
▁42	-9.97816
▁separate	-9.97826
▁albumin	-9.97879
-1,	-9.97907
OS	-9.97973
▁METHOD	-9.97991
AC	-9.98037
▁bowel	-9.98101
▁Additionally	-9.98148
▁38	-9.98186
▁detailed	-9.98307
▁Hg	-9.98316
▁pharmacological	-9.98383
▁tube	-9.98386
▁embryonic	-9.984
▁placed	-9.98435
▁cyclic	-9.98463
▁fixed	-9.98465
▁African	-9.98474
▁satisfaction	-9.98511
SP	-9.98596
44	-9.98627
▁controlling	-9.98654
ton	-9.98664
▁hybridization	-9.98706
▁immunity	-9.9876
▁recommendations	-9.98764
▁ED	-9.98795
▁fragments	-9.98804
▁hemorrhage	-9.98921
▁investigations	-9.98991
▁hearing	-9.99006
▁fact	-9.99064
ide	-9.99108
▁Research	-9.9912
ro	-9.99149
▁fractions	-9.99162
▁substance	-9.99228
▁odds	-9.99271
▁estrogen	-9.99291
▁background	-9.99294
▁Di	-9.99323
▁auto	-9.99458
▁polymer	-9.99519
▁Use	-9.9963
▁theoretical	-9.99637
▁(9	-9.99678
▁Immuno	-9.99781
▁&	-9.99905
▁feature	-9.99912
ling	-9.99924
▁comparative	-9.99943
▁reduces	-10.0001
▁femoral	-10.0002
▁nitric	-10.0003
▁possibly	-10.0012
▁methylation	-10.0012
▁pulse	-10.0014
▁pigs	-10.0018
▁He	-10.0021
▁barrier	-10.0025
▁bond	-10.0028
▁STUDY	-10.003
°	-10.0032
(1)	-10.0035
▁Bio	-10.0036
▁explored	-10.0037
▁LPS	-10.0038
▁emotional	-10.0049
▁locus	-10.005
▁deletion	-10.0056
▁Alzheimer	-10.0056
▁microbial	-10.0056
▁progress	-10.0056
▁More	-10.0056
▁dementia	-10.0057
▁resources	-10.0085
▁mature	-10.0087
▁Cell	-10.009
▁obstruction	-10.0093
▁integrated	-10.0097
▁LC	-10.0108
▁laparoscopic	-10.0111
▁mucosa	-10.0114
45	-10.0126
▁embryos	-10.013
▁cytotoxic	-10.0131
▁72	-10.014
5,	-10.0154
▁removed	-10.0161
▁implicated	-10.0173
-3-	-10.0174
▁fever	-10.0174
▁expansion	-10.0174
▁delay	-10.0176
▁subjected	-10.0179
▁Thirty	-10.0196
▁woman	-10.0196
▁settings	-10.0198
▁zinc	-10.02
▁world	-10.0211
▁ligands	-10.0217
▁admitted	-10.0225
▁ST	-10.0231
▁cytochrome	-10.025
▁serve	-10.0252
▁sections	-10.0259
▁explained	-10.0259
ite	-10.0266
▁AIM	-10.0272
▁supported	-10.0272
▁simultaneously	-10.0283
▁wave	-10.0289
▁rural	-10.0301
▁simulation	-10.0301
▁ranging	-10.0304
rich	-10.0306
▁functioning	-10.031
▁Acute	-10.0324
▁interferon	-10.0327
DNA	-10.033
PE	-10.0341
▁putative	-10.0345
▁particle	-10.0346
▁modeling	-10.0348
▁inclusion	-10.0356
(4)	-10.0367
▁documented	-10.0367
▁reached	-10.0377
ies	-10.0377
▁face	-10.0379
▁assessing	-10.0382
▁semi	-10.0383
▁immediately	-10.0385
▁demonstrates	-10.0392
▁treating	-10.0392
▁dorsal	-10.0392
▁policy	-10.0395
▁systolic	-10.0401
▁mL	-10.0408
▁noise	-10.0415
▁tumours	-10.0416
▁deaths	-10.0429
▁antimicrobial	-10.0439
▁Al	-10.044
▁biomarkers	-10.0441
▁terminal	-10.0444
▁endoscopic	-10.0456
▁probability	-10.046
ne	-10.0467
▁nodes	-10.0481
▁considerable	-10.0483
▁attenuated	-10.0488
▁medial	-10.0496
▁gradient	-10.0499
▁color	-10.0508
▁hybrid	-10.051
▁urban	-10.051
*	-10.0522
▁EC	-10.053
▁spin	-10.0532
▁utilization	-10.0534
▁involves	-10.0547
▁lowest	-10.0548
▁charge	-10.0551
▁correct	-10.0551
▁endo	-10.0556
▁lipoprotein	-10.0558
▁changed	-10.0562
▁maturation	-10.0565
▁aggregation	-10.057
▁mixture	-10.0574
▁symptomatic	-10.0574
▁expressing	-10.0575
▁heavy	-10.0577
▁suspected	-10.0583
▁scan	-10.0583
▁sulfate	-10.059
▁prevented	-10.0592
▁South	-10.0599
▁cycles	-10.0605
▁segments	-10.0611
▁original	-10.0614
▁synaptic	-10.0617
deficient	-10.0617
▁phenomenon	-10.0625
▁bias	-10.0628
▁Cl	-10.0629
100	-10.0632
▁concerning	-10.0636
▁PA	-10.0642
ID	-10.0645
▁Micro	-10.0649
=0	-10.0653
physiological	-10.0654
▁numerous	-10.0655
▁biology	-10.0656
BL	-10.0657
▁viability	-10.066
for	-10.0661
CR	-10.0667
▁Expression	-10.0673
▁skills	-10.0673
MI	-10.0684
▁arrest	-10.0694
▁2000	-10.0697
RS	-10.0699
▁qualitative	-10.0701
▁subsequently	-10.0701
▁direction	-10.0702
off	-10.0707
▁insertion	-10.0711
▁arm	-10.0712
▁10-	-10.0715
▁blocked	-10.0715
▁Many	-10.0724
▁aureus	-10.0726
▁recipients	-10.0728
▁staff	-10.0729
▁alter	-10.073
▁cleavage	-10.0735
▁spleen	-10.0736
▁sinus	-10.0742
▁electrophoresis	-10.0743
▁regard	-10.0749
▁monitored	-10.075
▁rest	-10.0755
▁variance	-10.0755
regulation	-10.0758
▁perception	-10.076
▁axis	-10.076
io	-10.0763
▁complement	-10.0766
▁nuclei	-10.0766
▁[3	-10.0774
▁depends	-10.0774
▁HCV	-10.0778
▁MMP	-10.0782
▁mitochondria	-10.0793
▁adjusted	-10.0794
▁autoimmune	-10.0795
▁reflect	-10.0798
▁availability	-10.0799
IP	-10.0801
▁cartilage	-10.0811
▁entire	-10.0813
▁interface	-10.0821
▁blot	-10.0821
▁extension	-10.0822
▁Five	-10.0829
▁pairs	-10.0843
▁varying	-10.085
DI	-10.0855
▁once	-10.0856
▁20%	-10.0859
],	-10.0862
▁transgenic	-10.0863
▁adjuvant	-10.0865
▁Association	-10.0869
▁language	-10.0872
▁250	-10.0886
MA	-10.0886
▁BP	-10.089
▁actions	-10.0901
▁speed	-10.0902
▁toxin	-10.0904
ut	-10.0906
▁loading	-10.0915
▁simultaneous	-10.0916
▁retrospectively	-10.0917
▁epilepsy	-10.092
▁disability	-10.0923
▁simulations	-10.0926
▁75	-10.0931
▁1)	-10.0932
▁adherence	-10.0935
▁embryo	-10.0936
▁reactivity	-10.0938
▁relaxation	-10.094
▁steps	-10.0942
▁0.01).	-10.0943
▁own	-10.0943
▁thereby	-10.0949
▁abuse	-10.0951
ical	-10.0953
▁GC	-10.0955
▁volunteers	-10.0959
▁exist	-10.096
AS	-10.0965
▁weak	-10.0968
▁lip	-10.0968
▁includes	-10.0978
stimulated	-10.0987
▁HPV	-10.0988
▁released	-10.099
▁IGF	-10.0994
▁experiences	-10.0995
out	-10.0996
▁facial	-10.1003
▁adaptation	-10.1003
▁candidate	-10.1005
23	-10.1005
▁shorter	-10.1009
▁cavity	-10.1014
▁adjacent	-10.1017
▁zone	-10.1018
▁equivalent	-10.1023
▁Early	-10.1023
histochemical	-10.103
▁advances	-10.1032
▁constructed	-10.1038
▁donors	-10.104
▁deposition	-10.1044
▁SETTING	-10.1047
▁thrombosis	-10.1048
▁composed	-10.105
▁potentials	-10.105
▁Blood	-10.1054
▁question	-10.1059
▁HA	-10.1061
▁cytoplasmic	-10.1061
▁depressive	-10.1076
▁preparations	-10.1078
▁phosphatase	-10.1082
▁presents	-10.1085
▁personal	-10.1086
▁identifying	-10.109
▁proved	-10.1093
▁ventilation	-10.1096
▁met	-10.1101
▁preliminary	-10.1105
▁efforts	-10.1106
os	-10.1109
▁GH	-10.111
all	-10.1111
▁minimum	-10.1111
▁adsorption	-10.1114
▁taking	-10.1114
▁angiography	-10.1115
0.0	-10.1116
▁spine	-10.1117
▁give	-10.1118
▁estimation	-10.112
▁practical	-10.1123
FA	-10.1126
▁TB	-10.1136
▁39	-10.1142
▁limitations	-10.1147
▁users	-10.1147
▁rabbits	-10.1154
▁live	-10.1155
DR	-10.1157
▁depending	-10.1158
▁immediate	-10.1163
ET	-10.1164
▁economic	-10.1166
▁surveillance	-10.1175
▁fields	-10.1178
▁heterogeneity	-10.1182
▁predictor	-10.1186
▁Sp	-10.1193
▁generate	-10.1194
▁cyst	-10.1195
▁room	-10.1197
▁sclerosis	-10.1203
(-)	-10.1205
▁define	-10.1205
2/	-10.1206
▁composite	-10.1213
▁cytotoxicity	-10.1213
▁adenocarcinoma	-10.1222
▁operative	-10.1229
▁mol	-10.123
▁untreated	-10.1233
▁chloride	-10.1239
▁correction	-10.1241
do	-10.1242
▁regeneration	-10.1243
▁precursor	-10.1245
end	-10.1253
6,	-10.1254
▁Not	-10.1257
▁initially	-10.1267
mer	-10.1273
isation	-10.1276
▁consisting	-10.1277
▁HR	-10.1277
▁evaluating	-10.1279
▁super	-10.1282
26	-10.1288
▁regimen	-10.1294
▁phases	-10.1296
▁(20	-10.1301
▁take	-10.1301
▁collection	-10.1309
▁cutaneous	-10.131
47	-10.1312
-1)	-10.1316
▁focal	-10.1324
▁drinking	-10.133
▁recruited	-10.133
be	-10.1335
▁centers	-10.1336
▁squamous	-10.1337
▁PET	-10.1351
▁avoid	-10.1353
go	-10.1365
▁potassium	-10.1365
000	-10.1369
▁dry	-10.1371
▁assembly	-10.1376
▁pseudo	-10.1385
1/	-10.1386
▁advantages	-10.1405
ised	-10.1406
▁Each	-10.1412
▁hypertensive	-10.1415
▁teeth	-10.1416
▁restriction	-10.1416
▁negatively	-10.1419
▁Such	-10.142
bi	-10.1421
▁errors	-10.1423
▁scientific	-10.1423
▁glutathione	-10.1424
▁distributed	-10.1425
▁episodes	-10.1426
▁NK	-10.1428
▁predominantly	-10.143
▁sera	-10.143
▁issue	-10.1433
▁became	-10.1434
max	-10.1435
▁dialysis	-10.1437
▁insights	-10.1446
▁elevation	-10.1448
▁feedback	-10.1452
▁mapping	-10.1457
▁malaria	-10.1458
PR	-10.1462
▁traits	-10.1463
▁overexpression	-10.1466
ox	-10.1467
▁CH	-10.1471
ME	-10.1477
▁temperatures	-10.1477
▁thin	-10.148
▁twice	-10.1492
▁pituitary	-10.1497
▁plasmid	-10.1497
▁curves	-10.1501
▁Japanese	-10.1503
▁pretreatment	-10.1507
▁pneumonia	-10.1507
▁depth	-10.151
life	-10.1511
LC	-10.1514
▁repeat	-10.1518
▁parameter	-10.1524
em	-10.1527
▁copper	-10.1528
ities	-10.1528
eg	-10.1531
▁unusual	-10.1534
▁circulation	-10.1538
▁clusters	-10.1544
▁indices	-10.1545
▁If	-10.155
▁always	-10.1553
▁uterine	-10.1557
▁supplementation	-10.156
▁he	-10.1569
▁glutamate	-10.1572
▁hospitalization	-10.1574
▁carcinomas	-10.1582
▁55	-10.1586
▁IC	-10.1589
▁deficits	-10.1589
▁her	-10.1591
▁2.0	-10.1591
TA	-10.1599
▁placement	-10.1605
▁attributed	-10.1609
▁delta	-10.1613
▁pathogens	-10.1614
▁caspase	-10.1623
▁utility	-10.1626
▁regular	-10.1627
▁causing	-10.1632
▁referred	-10.1633
▁recovered	-10.1637
▁Molecular	-10.1638
▁steroid	-10.1638
HA	-10.1641
▁loci	-10.1642
two	-10.1647
▁spectral	-10.1648
▁limits	-10.1649
▁remission	-10.1654
▁biosynthesis	-10.1658
▁LDL	-10.166
▁robust	-10.1663
CM	-10.1668
▁0.02	-10.1669
▁express	-10.1671
▁Changes	-10.1676
▁maintain	-10.1682
▁1.0	-10.1691
▁regulating	-10.1697
▁consider	-10.1707
▁aggressive	-10.1709
▁reporting	-10.1723
phenyl	-10.1724
▁commercial	-10.1731
histochemistry	-10.1733
▁Primary	-10.1735
▁cold	-10.1736
35	-10.1741
▁tasks	-10.1745
▁Neuro	-10.1748
▁Long	-10.1751
▁orientation	-10.1753
▁requirements	-10.1755
▁kinetic	-10.1755
▁detectable	-10.1755
▁thoracic	-10.1757
▁perspective	-10.1769
▁Zn	-10.1773
▁0.03	-10.1774
▁esophageal	-10.1778
▁excess	-10.1778
TS	-10.1782
▁absolute	-10.1787
▁counts	-10.1789
MR	-10.1792
-1-	-10.1793
▁December	-10.1793
mol	-10.1794
AA	-10.1798
PP	-10.1801
▁hair	-10.1804
▁nearly	-10.1809
▁manifestations	-10.1813
▁integration	-10.1822
▁Assessment	-10.1823
▁trends	-10.1826
▁department	-10.1831
by	-10.1831
▁ELISA	-10.1834
▁neutral	-10.1835
▁Disease	-10.1839
▁pig	-10.1842
▁PATIENTS	-10.1843
▁influences	-10.1843
▁diffuse	-10.1846
7,	-10.1847
▁Participants	-10.1848
(1	-10.1856
▁introduction	-10.1856
grade	-10.1857
▁residents	-10.1859
DS	-10.1864
▁44	-10.1869
▁hemoglobin	-10.1876
NS	-10.1878
▁tobacco	-10.1879
treatment	-10.1887
▁sets	-10.1889
▁implants	-10.1894
ag	-10.1894
▁adenosine	-10.1896
▁extremely	-10.19
▁mucosal	-10.1908
▁asymptomatic	-10.1908
phosphate	-10.1911
▁homeostasis	-10.1916
▁43	-10.1916
▁adrenal	-10.1918
▁injections	-10.1923
▁movements	-10.1931
▁separated	-10.1931
▁though	-10.194
▁DA	-10.1943
▁valuable	-10.1948
▁HCC	-10.195
▁spread	-10.1955
▁nutritional	-10.1961
22	-10.1964
▁AP	-10.1965
34	-10.1965
▁stent	-10.1969
▁column	-10.1974
▁3,	-10.1976
▁kDa	-10.1982
55	-10.1984
▁Under	-10.199
▁communities	-10.1998
▁differentiated	-10.2
▁continued	-10.2003
▁predicting	-10.2005
▁corneal	-10.2009
▁easily	-10.2017
▁vesicles	-10.2019
▁methodology	-10.2021
▁indirect	-10.2021
▁ablation	-10.203
▁professional	-10.2039
Cs	-10.204
▁distress	-10.205
GA	-10.2055
▁voltage	-10.2057
▁o	-10.2057
▁lymphocyte	-10.2057
TM	-10.2061
6)	-10.2068
▁lumbar	-10.2079
operative	-10.208
▁incorporation	-10.2085
▁LV	-10.2085
▁VEGF	-10.2089
▁increasingly	-10.2091
▁display	-10.2097
▁relapse	-10.2099
▁discovery	-10.2102
▁standardized	-10.2104
ig	-10.2108
▁permeability	-10.2108
▁correlate	-10.2109
4+	-10.2113
▁demographic	-10.2125
▁evident	-10.2132
▁restricted	-10.2134
▁Mg	-10.2134
▁greatly	-10.2134
▁St	-10.2149
▁Over	-10.2162
▁section	-10.2166
▁disc	-10.2166
▁×	-10.2167
lic	-10.2171
▁Case	-10.2171
▁hypothesized	-10.2178
▁etiology	-10.2179
7)	-10.2183
independent	-10.2186
▁Multiple	-10.2188
▁ET	-10.2192
▁90%	-10.2195
▁Type	-10.2195
▁mmol	-10.2197
▁auditory	-10.2198
IN	-10.2201
▁rs	-10.2201
▁operating	-10.2201
ang	-10.2202
▁Ag	-10.2204
▁insight	-10.2206
▁acquisition	-10.2207
ce	-10.221
▁CS	-10.2214
▁2)	-10.2216
▁decreasing	-10.2216
▁reasons	-10.2217
oc	-10.2223
▁subunits	-10.2224
·	-10.2226
▁substances	-10.2242
▁Children	-10.2244
▁aims	-10.2245
▁pelvic	-10.2245
▁intrinsic	-10.2246
▁DM	-10.2248
▁Plasma	-10.2249
▁gold	-10.2249
▁oxidase	-10.2249
▁nutrition	-10.2255
▁5%	-10.2255
▁translation	-10.2258
ile	-10.2266
VI	-10.2267
▁contraction	-10.2269
▁evoked	-10.2271
CE	-10.2273
▁lipids	-10.2274
▁regulates	-10.2277
95	-10.2277
▁dissection	-10.228
▁requiring	-10.2281
iv	-10.2299
▁bodies	-10.23
▁lacking	-10.2301
▁mobility	-10.2303
rin	-10.2314
TC	-10.2315
▁options	-10.2317
▁microscopic	-10.2318
▁Development	-10.233
amide	-10.2331
▁heparin	-10.2331
▁chains	-10.2332
▁MI	-10.2336
9)	-10.2336
▁Genetic	-10.2337
ence	-10.2337
▁Previous	-10.234
MP	-10.2342
▁allergic	-10.2349
▁protease	-10.2352
▁degeneration	-10.2352
▁Following	-10.2355
PO	-10.2362
lin	-10.2364
▁inner	-10.2365
▁genotypes	-10.2376
▁Chronic	-10.239
▁enzymatic	-10.239
cm	-10.2396
▁labeled	-10.2399
▁amplification	-10.2399
▁ocular	-10.2402
po	-10.2403
▁antagonists	-10.2405
42	-10.241
CSF	-10.2411
▁46	-10.2413
▁categories	-10.2419
▁inferior	-10.2419
▁offer	-10.2421
▁analytical	-10.2422
▁peritoneal	-10.2426
▁existence	-10.2428
▁epi	-10.2436
CP	-10.2449
▁Other	-10.2451
5)	-10.2454
▁8-	-10.2455
▁0.05	-10.2464
▁adaptive	-10.2465
ci	-10.2466
▁1.8	-10.2469
IT	-10.248
▁gestation	-10.2482
▁green	-10.2486
▁intestine	-10.2488
▁pilot	-10.2491
▁duct	-10.2491
▁mostly	-10.2494
▁vessel	-10.2495
▁quantum	-10.2496
36	-10.2496
▁improvements	-10.2502
ata	-10.2502
ip	-10.2504
▁turn	-10.2504
four	-10.2504
ology	-10.2508
▁tetra	-10.2513
▁Intra	-10.2518
▁adjustment	-10.2526
▁feasibility	-10.2527
▁emerging	-10.2531
▁iso	-10.2533
▁hippocampal	-10.2535
▁gap	-10.2536
▁articles	-10.2542
▁nM	-10.2542
▁undertaken	-10.2545
▁41	-10.2546
▁examinations	-10.2546
▁reveals	-10.2552
▁classes	-10.2554
▁seizures	-10.2561
▁Six	-10.2567
▁utilized	-10.2568
▁true	-10.257
▁film	-10.2573
▁unilateral	-10.2574
▁yielded	-10.2574
▁hippocampus	-10.2574
▁percutaneous	-10.2582
NP	-10.2583
ae	-10.2583
ose	-10.2586
▁reversed	-10.2589
RE	-10.2592
▁sepsis	-10.2598
▁pylori	-10.2598
▁fewer	-10.2602
κ	-10.2611
▁ear	-10.2613
▁translocation	-10.2618
SO	-10.2623
▁contributes	-10.2623
▁Un	-10.2626
▁calculations	-10.2632
▁80%	-10.2636
▁0.2	-10.264
γ	-10.264
▁biopsies	-10.2644
▁Evidence	-10.2645
▁already	-10.2645
ins	-10.2647
▁validation	-10.2647
▁pure	-10.2648
▁pathogenic	-10.2648
▁(>	-10.265
▁guinea	-10.2651
form	-10.2651
▁cut	-10.2651
▁phenotypes	-10.2654
acetyl	-10.2659
▁gave	-10.2659
ty	-10.2662
SA	-10.2669
EP	-10.2677
▁Their	-10.2677
▁acetate	-10.2681
controlled	-10.2682
▁parent	-10.2686
▁inactivation	-10.2688
2),	-10.2692
▁software	-10.2693
▁layers	-10.2695
▁CP	-10.2697
▁residue	-10.2702
▁12-	-10.2706
▁heterogeneous	-10.2707
▁compression	-10.2709
9,	-10.2717
8,	-10.2718
▁relevance	-10.2719
▁fatigue	-10.2722
▁PM	-10.2723
▁respond	-10.2724
▁120	-10.2729
▁anemia	-10.2731
▁susceptible	-10.2744
▁beyond	-10.2744
▁Doppler	-10.2753
▁Poly	-10.2754
▁medications	-10.2757
▁modifications	-10.2757
▁Cd	-10.2761
▁participation	-10.2762
▁artificial	-10.2767
non	-10.2775
▁aneurysm	-10.2777
AL	-10.2787
▁advantage	-10.279
▁Low	-10.2803
▁0.01)	-10.2804
▁coding	-10.2806
▁differed	-10.2807
▁depletion	-10.281
6-	-10.2812
▁cAMP	-10.2812
▁CR	-10.2816
▁items	-10.2817
▁guide	-10.2825
▁seem	-10.2836
▁500	-10.2837
MD	-10.2839
▁capillary	-10.284
▁pathogen	-10.2842
▁Surgical	-10.2847
▁edema	-10.2849
▁concomitant	-10.2853
▁grown	-10.2855
op	-10.2855
▁educational	-10.2858
CL	-10.286
▁International	-10.2866
▁flap	-10.2869
▁indicators	-10.2869
LE	-10.2874
▁contents	-10.2876
▁hormones	-10.2879
▁abundance	-10.2882
transferase	-10.2893
PG	-10.2894
GC	-10.2895
▁cystic	-10.2896
▁Patient	-10.2902
▁grafts	-10.2904
▁input	-10.2906
▁AF	-10.2907
▁array	-10.2907
▁Risk	-10.2907
NA	-10.291
ak	-10.2911
▁solvent	-10.2911
▁loop	-10.2921
▁Post	-10.2923
▁correlates	-10.2925
▁attitudes	-10.293
▁occupational	-10.2933
▁Recently	-10.2933
reported	-10.2934
▁steady	-10.2936
NC	-10.2937
▁interpretation	-10.2938
▁Total	-10.294
▁foot	-10.2948
pre	-10.2953
▁Ni	-10.2964
▁Forty	-10.2971
▁complicated	-10.2972
▁hydrolysis	-10.2973
▁aorta	-10.2979
▁30%	-10.298
▁interviews	-10.2981
▁outer	-10.2982
blind	-10.2985
75	-10.2985
▁fundamental	-10.2988
▁log	-10.2989
▁clones	-10.2992
▁monitor	-10.2993
▁transcripts	-10.2993
1),	-10.2993
▁Current	-10.3001
dis	-10.3006
67	-10.3007
▁detecting	-10.3009
ting	-10.3013
▁interference	-10.3013
emia	-10.302
assisted	-10.3022
▁entry	-10.3022
▁atherosclerosis	-10.3024
ib	-10.3025
▁itself	-10.3025
▁mineral	-10.3026
tin	-10.3027
▁coverage	-10.3028
▁ulcer	-10.3031
▁undergo	-10.3031
over	-10.3031
▁47	-10.3032
5-	-10.3034
test	-10.3035
▁Parkinson	-10.3036
▁Also	-10.3039
▁Ten	-10.3039
▁rheumatoid	-10.3042
▁protocols	-10.3043
▁surrounding	-10.3043
▁Ex	-10.3045
LT	-10.3046
68	-10.3047
▁attachment	-10.3049
▁improves	-10.3051
56	-10.3053
▁preventing	-10.3055
▁films	-10.3055
88	-10.3057
▁DC	-10.3058
▁determinants	-10.3063
▁ensure	-10.3067
▁lens	-10.307
ure	-10.3076
▁sheep	-10.308
▁neither	-10.3091
▁Control	-10.3099
▁classical	-10.31
MC	-10.3101
▁blue	-10.3103
▁First	-10.3103
▁interact	-10.3106
SC	-10.3108
▁52	-10.311
▁next	-10.3119
▁tension	-10.312
▁AR	-10.3122
▁delivered	-10.3136
6%	-10.314
LA	-10.3141
78	-10.3146
immunodeficiency	-10.3149
▁none	-10.3159
low	-10.316
▁substantially	-10.3163
DA	-10.3165
▁closure	-10.317
46	-10.3173
▁mmHg	-10.3174
LD	-10.3176
79	-10.3179
sh	-10.3182
▁called	-10.3184
▁fine	-10.3192
▁testosterone	-10.3193
▁rejection	-10.3193
IS	-10.3197
▁typically	-10.3197
▁consensus	-10.3201
ted	-10.3203
▁PE	-10.3203
▁lost	-10.3204
▁IR	-10.3208
▁Trans	-10.3208
▁barriers	-10.3209
se	-10.321
▁beam	-10.3211
▁situation	-10.3212
8)	-10.3214
▁rotation	-10.3216
▁project	-10.3219
▁subjective	-10.322
▁plaque	-10.3221
▁link	-10.3224
chain	-10.3243
▁0.04	-10.3245
▁frontal	-10.3246
▁positions	-10.3247
1%	-10.3248
▁malignancy	-10.3254
▁LH	-10.3255
▁excision	-10.3257
▁FA	-10.3276
▁subset	-10.3283
▁sought	-10.3288
▁plate	-10.3302
▁parts	-10.3305
▁directed	-10.3322
▁international	-10.3323
▁option	-10.3324
▁1.6	-10.3325
▁highlight	-10.3326
▁Drosophila	-10.3331
▁professionals	-10.3334
▁lactate	-10.334
land	-10.3341
▁offers	-10.3343
▁alleles	-10.3355
ator	-10.3355
▁macrophage	-10.3366
NF	-10.3366
▁Japan	-10.337
In	-10.3377
matched	-10.3379
▁PR	-10.3383
▁epidemiological	-10.3385
▁exogenous	-10.3387
▁thermo	-10.3389
Me	-10.3394
▁labeling	-10.3395
▁worldwide	-10.3402
▁similarity	-10.3409
▁newborn	-10.3413
▁leaf	-10.3414
ner	-10.3416
85	-10.3416
wide	-10.3418
▁providers	-10.3419
tr	-10.3421
pa	-10.3432
▁parental	-10.3445
▁simulated	-10.3449
▁GABA	-10.3451
▁apoptotic	-10.3453
▁angiotensin	-10.3457
▁epidermal	-10.3458
▁preterm	-10.346
AG	-10.3465
PT	-10.3465
▁prevalent	-10.3468
▁Care	-10.3472
▁electrode	-10.3478
DC	-10.3488
▁recruitment	-10.3489
2).	-10.3493
97	-10.3493
▁activator	-10.3494
▁leg	-10.3494
▁Multi	-10.3496
▁Significant	-10.3496
site	-10.3499
▁fall	-10.3499
▁evolutionary	-10.35
▁adolescent	-10.3502
▁leaves	-10.3505
▁precise	-10.3506
▁subtypes	-10.3507
▁promotes	-10.3508
29	-10.351
<	-10.351
▁chromatin	-10.3514
▁macro	-10.3517
▁MAIN	-10.352
▁serotonin	-10.3521
▁nurse	-10.3532
▁Society	-10.3532
▁vaginal	-10.3533
63	-10.3541
▁fungal	-10.3544
▁indications	-10.3546
▁false	-10.3549
▁Functional	-10.355
▁speech	-10.3553
▁producing	-10.3559
▁diastolic	-10.356
▁race	-10.3563
idae	-10.3563
▁member	-10.3584
69	-10.3584
▁gestational	-10.3588
▁resting	-10.3589
▁AIMS	-10.3591
reactive	-10.3598
▁girls	-10.3602
▁CSF	-10.3603
▁created	-10.3604
▁compliance	-10.3604
▁annual	-10.3607
▁300	-10.3615
▁allowing	-10.3623
▁dimensions	-10.3626
▁off	-10.3626
▁quantification	-10.3627
▁Methods	-10.3639
▁Gy	-10.364
▁identity	-10.3642
▁environments	-10.3645
▁Interestingly	-10.3648
ans	-10.365
▁dosage	-10.3651
▁portion	-10.3654
▁cirrhosis	-10.3657
▁Si	-10.3659
▁downstream	-10.3661
▁excluded	-10.3663
▁teaching	-10.3667
▁creatinine	-10.3667
EF	-10.3671
▁technical	-10.3677
▁smokers	-10.3682
▁version	-10.3688
-17	-10.3691
▁hr	-10.3694
▁morphine	-10.3695
66	-10.37
▁HF	-10.37
BC	-10.3704
▁combinations	-10.3704
care	-10.3704
49	-10.3707
▁discrimination	-10.3707
▁infiltration	-10.3712
▁feasible	-10.3718
▁w	-10.3721
1/2	-10.3721
▁Increased	-10.3722
▁black	-10.3723
▁supporting	-10.3725
▁inhibiting	-10.3728
▁ill	-10.3736
▁reading	-10.3737
▁consists	-10.3737
39	-10.3741
▁pronounced	-10.3743
▁immunoglobulin	-10.3743
▁screened	-10.3748
▁reductase	-10.3755
37	-10.3765
density	-10.3766
▁cortisol	-10.3766
▁deviation	-10.3769
▁intracranial	-10.377
▁postnatal	-10.3778
▁clinicians	-10.378
▁rupture	-10.3783
trans	-10.3785
▁MT	-10.3786
▁proton	-10.3788
▁transfusion	-10.3788
▁Is	-10.379
▁adipose	-10.3792
▁visits	-10.3793
son	-10.3804
▁modulate	-10.3809
▁Se	-10.3809
▁coefficients	-10.3818
▁unchanged	-10.3819
▁motility	-10.382
▁dendritic	-10.3821
▁raised	-10.3825
▁traumatic	-10.3828
5%	-10.3831
▁rectal	-10.3837
▁digital	-10.384
▁beginning	-10.3841
▁concern	-10.3851
ap	-10.3851
▁obstructive	-10.3851
art	-10.3855
ear	-10.3855
▁aid	-10.3856
▁construct	-10.3858
450	-10.3859
ography	-10.3861
five	-10.3862
▁mother	-10.3862
cal	-10.3863
▁subcutaneous	-10.3865
▁Staphylococcus	-10.3866
▁vaccines	-10.3866
▁alveolar	-10.3876
▁regulator	-10.3877
▁reviews	-10.3882
pi	-10.3885
▁progesterone	-10.3889
▁suicide	-10.389
▁pancreas	-10.3895
▁binds	-10.3895
▁regimens	-10.39
▁platelets	-10.3902
▁chromosomal	-10.3908
▁56	-10.3909
▁diets	-10.3909
RF	-10.3913
▁attempt	-10.3914
▁equilibrium	-10.3919
▁scales	-10.3919
▁150	-10.3925
▁hydrophobic	-10.3925
▁sensor	-10.3925
ning	-10.3928
ot	-10.3935
▁anatomical	-10.3942
▁40%	-10.3945
▁parasite	-10.3945
▁starting	-10.3953
▁Salmonella	-10.3953
▁optic	-10.3966
96	-10.3966
▁hetero	-10.3967
▁alkaline	-10.3968
▁49	-10.3968
▁plan	-10.397
▁databases	-10.3971
▁timing	-10.3973
▁carriers	-10.3975
▁changing	-10.3981
▁probes	-10.3983
▁panel	-10.3988
▁supply	-10.3989
43	-10.3991
▁Role	-10.3991
median	-10.3993
adjusted	-10.3994
ie	-10.3994
▁million	-10.3996
▁likelihood	-10.3996
▁y	-10.3998
▁germ	-10.4002
AM	-10.401
▁transduction	-10.4013
▁prospectively	-10.4015
)]	-10.4017
▁onto	-10.4028
▁phenotypic	-10.4032
▁ground	-10.4039
MB	-10.4042
HS	-10.4044
▁stomach	-10.4051
CF	-10.4051
▁selectively	-10.4051
▁difficulties	-10.4053
▁scans	-10.4059
field	-10.4061
/6	-10.4061
▁complexity	-10.4065
▁endocrine	-10.4067
▁instability	-10.4073
▁concerns	-10.4073
▁somatic	-10.4073
▁selectivity	-10.4077
▁CNS	-10.4086
▁metabolite	-10.4094
▁EEG	-10.4095
▁awareness	-10.4097
ens	-10.4099
▁start	-10.4099
▁exists	-10.4101
ph	-10.4104
89	-10.4104
▁angiogenesis	-10.4108
▁genus	-10.4108
▁quantified	-10.4109
3%	-10.4112
Fe	-10.4113
▁remodeling	-10.4119
▁elimination	-10.4119
▁1.9	-10.4121
▁0.3	-10.4123
▁video	-10.4124
▁contamination	-10.413
▁gl	-10.413
▁decisions	-10.4138
▁AIDS	-10.4139
99	-10.4141
▁absent	-10.4143
peptide	-10.4145
▁participated	-10.4151
▁implemented	-10.4151
▁mammary	-10.4162
▁initiated	-10.4164
▁cattle	-10.417
▁1.7	-10.4174
▁cloned	-10.4174
▁challenging	-10.4175
▁Cr	-10.4179
EM	-10.418
li	-10.4187
ler	-10.419
▁NS	-10.4195
▁substitution	-10.4197
response	-10.4199
ill	-10.42
▁sizes	-10.4202
▁feed	-10.4204
ors	-10.4205
▁(<	-10.4209
▁Protein	-10.421
▁homologous	-10.4221
▁disruption	-10.4221
▁ages	-10.4222
▁Gene	-10.4223
active	-10.4225
▁fibrillation	-10.4226
▁indicator	-10.4228
TT	-10.4234
▁team	-10.4237
▁tail	-10.4237
▁hepatocellular	-10.4238
NT	-10.4239
▁idiopathic	-10.4241
▁retina	-10.4243
▁prominent	-10.4249
▁phosphatidyl	-10.4251
-4-	-10.4251
▁supports	-10.4254
SR	-10.4257
▁favorable	-10.4259
▁chromosomes	-10.4262
ome	-10.4263
▁agonists	-10.4264
▁cytometry	-10.4264
▁consistently	-10.4266
▁portal	-10.4267
▁biliary	-10.4273
▁amyloid	-10.4274
-18	-10.4274
▁integrity	-10.4276
▁just	-10.428
▁SR	-10.4283
58	-10.4283
▁operations	-10.4288
▁conformation	-10.4288
receptor	-10.4293
▁AS	-10.4296
▁mitral	-10.4296
▁TLR	-10.4297
TR	-10.4298
▁premature	-10.4304
48	-10.4327
▁colony	-10.4328
PM	-10.4333
▁400	-10.4333
▁glands	-10.4336
j	-10.4337
▁proven	-10.434
▁PP	-10.4342
▁involve	-10.4344
▁widespread	-10.4345
▁pump	-10.4348
▁closed	-10.4348
▁fasting	-10.4351
01	-10.4352
▁OS	-10.4356
▁greatest	-10.4362
chi	-10.4366
▁54	-10.4368
▁North	-10.4369
▁Ad	-10.437
▁resource	-10.4373
BA	-10.4376
▁observational	-10.4377
▁principles	-10.4377
▁reversible	-10.4379
NH	-10.4382
▁atypical	-10.4382
▁hepatocytes	-10.4385
▁gut	-10.4385
▁Experimental	-10.4388
ti	-10.4389
▁intraoperative	-10.439
▁net	-10.4396
▁Identification	-10.4398
▁Li	-10.44
▁sympathetic	-10.4407
▁conformational	-10.4408
SI	-10.441
▁phylogenetic	-10.4414
▁consequence	-10.4414
▁CC	-10.4416
▁24-	-10.442
▁PS	-10.4425
oxo	-10.4425
▁vehicle	-10.4425
car	-10.4439
▁representative	-10.4443
▁51	-10.4447
▁carrier	-10.4451
▁HD	-10.4453
AF	-10.4458
▁phospho	-10.4459
▁linkage	-10.4461
▁maintaining	-10.4464
▁HBV	-10.4474
▁SF	-10.4475
▁Inter	-10.4478
▁vision	-10.4479
▁outpatient	-10.448
▁blockade	-10.448
▁superoxide	-10.4482
ell	-10.4487
▁decades	-10.4488
▁route	-10.4491
77	-10.4492
▁actual	-10.4495
▁faster	-10.4496
▁proper	-10.4497
▁survivors	-10.4498
▁rarely	-10.4501
73	-10.4502
▁ca	-10.4513
▁experimentally	-10.4514
▁dye	-10.4516
ogenic	-10.4518
▁signalling	-10.4522
▁technologies	-10.4523
▁ways	-10.4524
▁buffer	-10.4526
la	-10.4531
▁enhances	-10.4535
▁Women	-10.4536
labeled	-10.4536
VA	-10.4537
▁diagnoses	-10.4537
▁yields	-10.4538
▁outside	-10.4541
▁mis	-10.4546
three	-10.4546
▁summary	-10.455
▁demonstrating	-10.4556
▁En	-10.4558
▁64	-10.4558
▁refractory	-10.4559
▁elicited	-10.456
▁Age	-10.4574
bound	-10.4577
▁reach	-10.4581
▁Me	-10.4584
<0.05).	-10.4585
▁instrument	-10.459
32	-10.4591
▁suffering	-10.4591
▁brief	-10.4598
fer	-10.4598
MO	-10.4599
▁overview	-10.4599
LS	-10.4605
TE	-10.4614
▁Its	-10.4614
▁Survey	-10.4617
▁opioid	-10.4618
▁neutrophils	-10.4623
▁person	-10.4625
▁UK	-10.463
▁suppressor	-10.4638
▁pg	-10.4641
▁Africa	-10.4642
water	-10.4643
▁recombination	-10.465
▁transporter	-10.4651
TNF	-10.4652
▁cisplatin	-10.4659
▁histone	-10.4661
▁Hz	-10.4663
▁withdrawal	-10.4664
▁elucidate	-10.4667
▁locations	-10.4669
▁ms	-10.4671
aged	-10.4674
▁95	-10.4674
od	-10.4674
▁efficiently	-10.4679
▁makes	-10.468
▁needle	-10.468
▁AA	-10.4682
▁differentially	-10.4686
ants	-10.4694
SF	-10.4698
▁protect	-10.4702
▁ROS	-10.4703
order	-10.4705
▁standards	-10.471
▁effort	-10.4712
nine	-10.4715
▁description	-10.4723
▁endometrial	-10.4726
▁equation	-10.4726
▁subgroup	-10.4726
ring	-10.473
▁screen	-10.4731
▁map	-10.4735
▁Between	-10.4737
▁reperfusion	-10.4737
▁vary	-10.4739
▁generalized	-10.4741
ella	-10.4743
BM	-10.4745
AB	-10.4746
▁prophylaxis	-10.475
▁myeloid	-10.475
ge	-10.4755
59	-10.4758
▁regardless	-10.4767
IA	-10.4769
▁2004	-10.4771
▁drainage	-10.4782
▁emerged	-10.4782
▁atrophy	-10.4788
86	-10.4788
▁respondents	-10.479
tro	-10.4802
ten	-10.4803
▁incubated	-10.4804
▁fresh	-10.4809
▁readily	-10.4814
▁ionic	-10.4819
▁HDL	-10.4823
ub	-10.4824
▁modes	-10.4826
1).	-10.4828
8%	-10.483
cy	-10.4834
▁scattering	-10.4837
▁carbohydrate	-10.4842
TB	-10.4842
▁acceptable	-10.4848
▁filtration	-10.4854
▁transl	-10.486
author	-10.486
▁dog	-10.4861
▁volumes	-10.4868
▁pair	-10.4882
▁SE	-10.489
oxy	-10.4891
▁return	-10.4894
▁emphasis	-10.4894
▁accurately	-10.4899
▁promoting	-10.49
▁researchers	-10.4902
▁53	-10.4903
BS	-10.4907
ana	-10.4907
anti	-10.4908
▁preference	-10.4909
▁mediate	-10.4911
▁interview	-10.4911
ful	-10.4912
HF	-10.4913
▁namely	-10.4917
▁derivative	-10.4917
▁largest	-10.4919
▁hypertrophy	-10.4922
▁questionnaires	-10.4923
▁histologic	-10.4923
ri	-10.4924
▁dissociation	-10.4924
echocardiography	-10.4925
▁consideration	-10.4925
▁distributions	-10.4927
▁isoforms	-10.4927
CV	-10.4933
▁forces	-10.4934
▁cumulative	-10.4938
▁principal	-10.4938
▁Ba	-10.4944
▁depend	-10.4945
▁sequential	-10.4947
▁hematopoietic	-10.495
▁25%	-10.4952
▁academic	-10.4956
▁secreted	-10.4957
▁inducing	-10.4959
BR	-10.4962
▁histopathologic	-10.4962
ize	-10.4966
fluorescence	-10.4971
▁modern	-10.4972
▁acts	-10.4974
▁2005	-10.4978
cin	-10.4982
▁boys	-10.4983
4%	-10.4988
dl	-10.4989
76	-10.4995
▁Ro	-10.4997
▁60%	-10.4999
▁ongoing	-10.5006
2%	-10.5011
▁engineering	-10.5011
98	-10.5018
▁text	-10.502
▁lobe	-10.502
▁permanent	-10.5022
cr	-10.5026
point	-10.5028
▁GP	-10.5034
▁stromal	-10.5035
ates	-10.504
▁tertiary	-10.504
LI	-10.5041
▁System	-10.5043
▁managed	-10.5047
ru	-10.5047
▁tooth	-10.5051
▁Drug	-10.5051
-15	-10.5053
▁cocaine	-10.5056
high	-10.5058
eight	-10.5059
▁born	-10.5061
▁cytoplasm	-10.5064
▁comparisons	-10.5067
▁dys	-10.5075
▁never	-10.5075
▁malignancies	-10.5077
GS	-10.5081
▁junction	-10.5084
▁egg	-10.5086
▁hyperplasia	-10.5087
▁subtype	-10.5089
▁polar	-10.5089
otic	-10.5091
▁passive	-10.5092
▁Index	-10.51
▁According	-10.5101
▁3)	-10.5104
ud	-10.5106
▁formulation	-10.5106
▁excitation	-10.5116
▁participate	-10.5116
▁neutrophil	-10.5124
▁abundant	-10.5133
▁CF	-10.5134
33	-10.5139
▁June	-10.5139
▁predominant	-10.5147
▁proportional	-10.5149
DE	-10.5149
TP	-10.515
▁Bi	-10.515
▁La	-10.5153
▁interstitial	-10.5155
▁stimulate	-10.516
▁computational	-10.5167
▁produces	-10.5172
-13	-10.5173
▁organism	-10.5173
ow	-10.5174
▁58	-10.5176
▁addressed	-10.5176
▁Mo	-10.5177
▁st	-10.5178
▁represented	-10.5179
▁displacement	-10.518
CN	-10.5185
▁2007	-10.5186
▁canal	-10.5187
RNA	-10.5188
ve	-10.5189
▁diminished	-10.5192
kappaB	-10.5193
▁enable	-10.5199
▁canine	-10.52
87	-10.5206
▁SH	-10.5206
▁record	-10.5207
▁2.2	-10.5209
▁70%	-10.521
rd	-10.5213
▁125	-10.5215
▁2.1	-10.5217
▁acidic	-10.5217
▁radiographic	-10.5219
▁porcine	-10.5221
vo	-10.5223
▁vertical	-10.5227
▁respective	-10.523
▁tendon	-10.5231
▁acetylcholine	-10.5231
uc	-10.5232
▁immunization	-10.5236
▁hemodynamic	-10.5246
▁genetically	-10.5247
▁Taken	-10.5247
▁Sub	-10.525
▁topical	-10.525
▁overcome	-10.5257
▁aromatic	-10.5261
▁science	-10.5263
▁monocytes	-10.5264
▁quantify	-10.5269
54	-10.5274
▁virulence	-10.5276
▁representing	-10.5278
▁complementary	-10.5279
hour	-10.5279
▁Pseudomonas	-10.5283
▁myo	-10.5285
▁studying	-10.5286
▁abolished	-10.5294
▁spp	-10.5295
▁pathologic	-10.5298
▁coagulation	-10.5301
▁1.2	-10.5311
▁shoulder	-10.5313
▁object	-10.5314
led	-10.5321
▁programme	-10.5339
▁SC	-10.534
▁operated	-10.534
▁preferred	-10.5345
▁worse	-10.5345
▁COPD	-10.5347
▁performing	-10.5348
▁pathophysiology	-10.5352
▁precision	-10.5352
▁≤	-10.5355
▁rice	-10.5359
▁nutrient	-10.5362
▁pancreatitis	-10.5365
▁mal	-10.5366
ABSTRACT	-10.5367
▁Tri	-10.537
▁oocytes	-10.5378
▁eating	-10.5378
▁sessions	-10.5388
▁fibroblast	-10.539
▁activate	-10.5391
▁secretory	-10.5392
PV	-10.5394
▁2003	-10.54
▁androgen	-10.5406
▁discussion	-10.5406
▁accounted	-10.5407
flow	-10.5408
res	-10.5409
▁considerably	-10.5411
▁PO	-10.5415
▁lungs	-10.5418
▁assist	-10.5427
▁cats	-10.5436
▁Inhibition	-10.5437
▁prenatal	-10.5443
▁viable	-10.5444
men	-10.5445
▁Available	-10.5447
▁Review	-10.5449
▁incorporated	-10.545
-100	-10.5453
LV	-10.5458
▁shared	-10.546
▁IgA	-10.5462
▁definition	-10.547
▁exon	-10.5473
▁powerful	-10.5483
▁follows	-10.5484
OT	-10.5491
AI	-10.5493
▁cat	-10.5495
six	-10.5498
▁Mn	-10.55
▁India	-10.5501
(2	-10.5504
▁sarcoma	-10.5506
▁pool	-10.5506
▁30-	-10.551
▁preventive	-10.551
SM	-10.5511
▁offspring	-10.5513
ec	-10.5514
▁optimized	-10.5516
emic	-10.5517
▁fruit	-10.5518
▁57	-10.5526
▁(15	-10.5526
▁glass	-10.553
=2	-10.5531
▁2006	-10.5533
micro	-10.5534
▁endothelium	-10.5535
])	-10.5544
▁Le	-10.5549
▁Cox	-10.555
▁nmol	-10.5554
▁1%	-10.5555
▁Similar	-10.5555
▁car	-10.5556
▁IgE	-10.5558
gene	-10.5563
▁°	-10.5566
▁responded	-10.5568
PH	-10.5577
▁1000	-10.5579
▁glycoprotein	-10.558
▁turnover	-10.5581
▁radial	-10.5584
▁histamine	-10.5584
▁vital	-10.5585
▁MC	-10.5585
tal	-10.5586
▁modalities	-10.5589
▁ligament	-10.5591
▁differentiate	-10.5591
▁detail	-10.5596
▁OA	-10.5606
▁pregnancies	-10.5607
▁Dis	-10.5607
▁larvae	-10.5607
ish	-10.5615
▁comprised	-10.5618
▁tree	-10.5618
▁biomarker	-10.5619
▁DR	-10.562
▁apical	-10.5623
▁PKC	-10.5623
▁sham	-10.5625
ane	-10.5626
-14	-10.5627
▁fistula	-10.5627
logy	-10.563
▁0.4	-10.5631
▁fear	-10.5634
▁syndromes	-10.5635
EA	-10.5636
▁2010	-10.5639
▁Institute	-10.564
▁kinases	-10.5642
As	-10.565
▁proliferative	-10.5657
3).	-10.566
▁clarify	-10.5662
way	-10.5665
▁implanted	-10.5666
RP	-10.5666
▁1.4	-10.5667
0,	-10.5667
▁bipolar	-10.5675
▁exhibits	-10.5678
iso	-10.568
BD	-10.568
▁reason	-10.5681
8-	-10.5686
▁2.3	-10.5691
▁randomised	-10.5691
▁ester	-10.5692
▁2002	-10.5695
▁potency	-10.5697
ula	-10.5699
▁SS	-10.5701
opolysaccharide	-10.5702
▁critically	-10.571
2.5	-10.5711
▁Medicine	-10.5711
side	-10.5717
▁see	-10.5718
▁purification	-10.5718
▁UN	-10.572
▁redox	-10.572
7%	-10.5726
▁lupus	-10.5729
▁familial	-10.5729
sp	-10.573
▁glomerular	-10.573
▁cows	-10.5731
CB	-10.5736
▁leptin	-10.5744
▁ventral	-10.5745
▁platform	-10.5745
▁recording	-10.5746
resolution	-10.5746
▁capture	-10.5747
PL	-10.5749
mi	-10.5751
hi	-10.5752
▁cysteine	-10.5752
▁Fifty	-10.5753
▁situations	-10.5754
▁decade	-10.5757
▁defense	-10.5759
MRI	-10.576
TG	-10.5764
ica	-10.5768
▁hydro	-10.5773
red	-10.578
▁CL	-10.5781
▁discovered	-10.5787
31	-10.5789
▁assessments	-10.579
body	-10.5792
▁psychosocial	-10.5794
▁3.0	-10.5795
▁alteration	-10.5799
odds	-10.5801
▁started	-10.5805
▁industry	-10.581
▁responsiveness	-10.5811
ob	-10.5813
▁plane	-10.5817
▁bonds	-10.5817
▁WORDS	-10.5819
▁blocks	-10.5823
▁concepts	-10.5824
72	-10.5827
▁muscular	-10.5828
but	-10.5828
we	-10.583
▁EGFR	-10.5832
▁automated	-10.5834
▁personality	-10.5834
▁NH	-10.5836
▁easy	-10.5837
▁mononuclear	-10.584
▁insufficiency	-10.5844
▁normally	-10.5845
▁unaffected	-10.5845
▁architecture	-10.5847
▁coordination	-10.5851
metric	-10.5851
▁subgroups	-10.5853
poly	-10.5853
▁fit	-10.5853
▁bands	-10.586
▁inside	-10.586
▁overweight	-10.5861
▁seed	-10.5861
LP	-10.5862
▁surgeons	-10.5863
▁immunological	-10.5864
▁LA	-10.5867
▁chemistry	-10.5867
▁visible	-10.5873
EN	-10.5874
▁motif	-10.5879
vi	-10.5881
▁aeruginosa	-10.5881
▁tolerated	-10.5886
invasive	-10.5892
onset	-10.5893
rate	-10.5895
▁stronger	-10.5896
▁sugar	-10.5897
64	-10.5897
▁HPLC	-10.5899
▁perceptions	-10.59
▁shear	-10.5904
▁Heart	-10.5906
▁practitioners	-10.5908
ard	-10.5911
▁TRUNCATED	-10.5911
é	-10.5921
-20	-10.5927
▁youth	-10.5928
▁walking	-10.5929
▁salivary	-10.5929
▁plasticity	-10.5932
▁seizure	-10.5933
▁59	-10.5933
▁neuron	-10.5935
▁2.4	-10.5938
▁carrying	-10.594
EL	-10.594
forming	-10.5944
▁polypeptide	-10.5946
▁postoperatively	-10.5954
▁trained	-10.5959
▁Quality	-10.5963
▁(12	-10.5964
producing	-10.597
IM	-10.5971
▁depressed	-10.5974
▁May	-10.5975
▁cysts	-10.5977
▁2001	-10.5982
▁electric	-10.5984
▁opposite	-10.5985
▁exact	-10.5994
▁mast	-10.5995
▁Department	-10.5997
▁sign	-10.5999
▁excessive	-10.6002
▁metals	-10.6004
HC	-10.6012
▁What	-10.6012
HD	-10.6017
μ	-10.6019
▁reductions	-10.602
▁NE	-10.6021
▁roots	-10.6022
▁99	-10.6023
▁requirement	-10.6024
▁possess	-10.6026
▁contributing	-10.6026
▁antiviral	-10.6028
▁ON	-10.6033
▁contralateral	-10.6035
▁hazard	-10.604
▁acuity	-10.6041
▁2009	-10.6044
▁encountered	-10.6048
▁contributed	-10.6049
vascular	-10.6053
▁antitumor	-10.6062
▁marine	-10.6063
▁glaucoma	-10.6069
ious	-10.6073
▁deficit	-10.6075
▁uses	-10.6076
▁NP	-10.6077
▁nerves	-10.6082
▁considering	-10.6085
▁facilities	-10.6088
▁accepted	-10.6088
ological	-10.6088
▁Europe	-10.6089
▁colitis	-10.6094
▁retained	-10.6094
▁GM	-10.6099
▁HC	-10.6102
▁3.5	-10.6103
▁ventricle	-10.6105
RI	-10.6108
▁anatomy	-10.6113
▁Test	-10.6119
▁visit	-10.6121
▁width	-10.6121
▁nicotine	-10.6122
▁Ch	-10.6123
▁autologous	-10.613
Co	-10.6134
tetra	-10.6135
▁wheat	-10.6139
ay	-10.614
▁Quantitative	-10.6143
▁superficial	-10.6144
▁stiffness	-10.6144
ha	-10.6149
‐	-10.615
tion	-10.6151
▁isolate	-10.6153
▁Single	-10.6156
▁chicken	-10.6164
▁apparently	-10.6165
▁country	-10.6171
▁(4)	-10.6171
▁optimization	-10.6172
▁tended	-10.6174
Na	-10.6182
step	-10.6185
▁competitive	-10.619
FT	-10.6192
▁counter	-10.6198
▁forming	-10.62
▁63	-10.62
▁pneumoniae	-10.6218
▁reflex	-10.6234
▁March	-10.6235
▁patch	-10.6244
kinase	-10.6245
▁decay	-10.6246
▁vectors	-10.625
▁reticulum	-10.6251
▁chamber	-10.6254
▁enhancing	-10.6256
ina	-10.6266
▁filter	-10.6268
▁fungi	-10.6268
osa	-10.6271
▁lifestyle	-10.6275
▁promoted	-10.6277
▁mobile	-10.6286
▁Direct	-10.6286
▁serine	-10.6289
▁severely	-10.6291
▁indication	-10.6291
▁67	-10.6292
ethyl	-10.6294
▁How	-10.6295
▁AMP	-10.6295
▁IgM	-10.6297
guided	-10.6299
▁peroxidase	-10.6303
▁aerobic	-10.6303
▁lethal	-10.6307
▁Management	-10.6325
ba	-10.6328
GP	-10.633
4).	-10.6331
yr	-10.6332
▁hour	-10.6334
▁analogues	-10.6342
▁rhythm	-10.6345
with	-10.6345
▁mu	-10.6346
immunoreactivity	-10.6351
▁urea	-10.6356
▁digestion	-10.6357
▁rRNA	-10.6357
▁disturbances	-10.6358
▁Within	-10.636
▁unrelated	-10.6371
▁periodontal	-10.6374
▁MHC	-10.6376
nd	-10.6377
ATPase	-10.6378
▁atomic	-10.6386
▁reflux	-10.6388
ts	-10.6389
▁former	-10.6389
activity	-10.6395
▁diffraction	-10.6398
▁dysplasia	-10.6401
▁recommend	-10.6401
▁aspiration	-10.6404
▁fitness	-10.6407
▁homology	-10.6407
▁create	-10.6416
▁mesenchymal	-10.6417
▁innate	-10.642
▁Center	-10.6425
▁SA	-10.6427
▁candidates	-10.6428
▁prescribed	-10.6429
▁1990	-10.6434
▁ganglion	-10.6434
NE	-10.6436
▁guidance	-10.644
▁anaerobic	-10.6442
▁effector	-10.6446
frequency	-10.6446
▁Australia	-10.6451
▁restored	-10.6455
▁continue	-10.6455
▁hormonal	-10.6456
▁satisfactory	-10.6456
▁68	-10.6457
▁erythrocytes	-10.6457
▁neonates	-10.6464
▁MD	-10.6464
▁concurrent	-10.6467
ATION	-10.6468
▁mo	-10.6469
let	-10.647
▁tend	-10.6473
▁opportunities	-10.6477
▁ICU	-10.6478
hospital	-10.649
▁Comparative	-10.6491
▁Cells	-10.6491
▁Time	-10.6502
▁ERK	-10.6506
fluoro	-10.6506
▁nonlinear	-10.6508
▁bronchial	-10.6511
▁0.6	-10.6514
▁FINDINGS	-10.6515
▁conduction	-10.652
tus	-10.6522
▁headache	-10.6524
▁highlights	-10.6527
▁Seven	-10.6529
7-	-10.6529
▁leukocyte	-10.653
▁labor	-10.6532
▁supra	-10.6535
▁5'-	-10.6536
▁Self	-10.6544
▁combining	-10.6546
▁transfected	-10.6548
▁physiology	-10.6549
▁asked	-10.6551
▁Ki	-10.6553
▁Gram	-10.6555
lu	-10.656
▁difficulty	-10.656
▁reporter	-10.6565
▁resolved	-10.6568
DD	-10.6574
▁psycho	-10.6579
ification	-10.658
▁driven	-10.6584
▁autophagy	-10.6593
▁atoms	-10.6594
▁IP	-10.6598
▁cerebellar	-10.6599
her	-10.66
▁online	-10.6607
▁believed	-10.6609
▁ideal	-10.661
▁foods	-10.6612
▁western	-10.6614
▁balloon	-10.6617
▁institution	-10.662
▁Br	-10.662
▁radiological	-10.6628
ensis	-10.6629
enhanced	-10.663
▁histology	-10.663
▁Au	-10.6631
▁paradigm	-10.6634
use	-10.6641
▁pressures	-10.6641
ists	-10.6644
▁1.1	-10.6645
▁bearing	-10.6648
▁exclusively	-10.6649
84	-10.6653
▁fatal	-10.6654
00	-10.6658
▁cement	-10.6665
▁uncommon	-10.6668
▁Do	-10.6669
▁focusing	-10.6669
▁hard	-10.6671
▁Arabidopsis	-10.6673
▁tubular	-10.668
so	-10.6686
nitro	-10.6686
▁microscope	-10.6686
ified	-10.6689
▁constants	-10.669
ING	-10.6691
▁instead	-10.6691
▁cis	-10.6694
▁domestic	-10.6694
▁configuration	-10.6696
▁7-	-10.67
▁None	-10.6705
▁placenta	-10.6709
▁transmembrane	-10.6713
▁usefulness	-10.6714
act	-10.6722
▁Per	-10.6722
▁distant	-10.6722
▁interesting	-10.6723
▁plastic	-10.6723
ole	-10.6725
▁share	-10.6726
▁blocking	-10.6728
▁Synthesis	-10.6732
▁library	-10.6736
▁Central	-10.6738
▁nodules	-10.6739
▁declined	-10.6753
▁arch	-10.6753
▁demand	-10.6757
▁96	-10.6766
▁lifetime	-10.6773
▁epidemiology	-10.6776
▁biomass	-10.678
▁Bcl	-10.6784
▁Influence	-10.6786
▁bed	-10.679
▁registered	-10.6791
▁encoded	-10.6792
▁She	-10.6792
▁prostaglandin	-10.6795
▁author	-10.6803
▁July	-10.6805
par	-10.6807
▁reflected	-10.6808
▁testicular	-10.6809
idine	-10.6809
▁neoplasms	-10.6809
▁enables	-10.6816
▁cataract	-10.682
▁syn	-10.6825
▁enriched	-10.6828
▁Questionnaire	-10.6829
▁mood	-10.6832
▁bulk	-10.6835
▁diarrhea	-10.6835
▁latency	-10.6836
▁Nevertheless	-10.6839
▁Part	-10.684
from	-10.6841
▁hospitalized	-10.6842
▁bp	-10.6846
▁climate	-10.6849
▁stained	-10.6853
▁industrial	-10.6854
▁transcript	-10.6854
▁Mar	-10.6858
▁0.8	-10.6861
▁colonic	-10.6862
▁66	-10.6863
IF	-10.6867
▁analogue	-10.6869
▁AC	-10.6869
▁Eight	-10.687
▁Given	-10.6871
▁Mycobacterium	-10.6873
BI	-10.6873
▁Candida	-10.6876
▁birds	-10.6877
83	-10.6881
▁COX	-10.6882
gel	-10.6882
▁saturation	-10.6891
generation	-10.6896
▁IS	-10.6896
▁CE	-10.6898
▁spontaneously	-10.69
▁referral	-10.6906
41	-10.6906
▁returned	-10.6908
94	-10.6912
▁flexible	-10.6912
▁acoustic	-10.6916
51	-10.6916
▁mixtures	-10.6919
▁flux	-10.6921
TI	-10.6921
▁4,	-10.6925
▁OUTCOME	-10.693
▁Pb	-10.693
▁controversial	-10.6932
▁62	-10.6935
▁Hyper	-10.6938
▁Surgery	-10.694
▁surgeon	-10.6941
ular	-10.6942
▁deficient	-10.6943
▁gradually	-10.6943
ni	-10.6944
▁axial	-10.6947
▁valid	-10.6949
▁tendency	-10.6952
▁mediators	-10.6952
▁nitrate	-10.6957
▁waste	-10.6961
▁ECG	-10.6961
▁hemodialysis	-10.6962
▁CV	-10.6969
▁juvenile	-10.697
▁swelling	-10.697
▁alignment	-10.6972
▁distinguish	-10.6979
PF	-10.698
▁scheme	-10.6984
▁driving	-10.6988
OA	-10.6988
pathy	-10.6989
93	-10.6989
▁undergone	-10.699
▁lineage	-10.6992
▁dramatically	-10.6993
▁instruments	-10.6995
▁opportunity	-10.6995
▁sense	-10.7
▁perioperative	-10.7
▁category	-10.7001
▁chemo	-10.7002
▁World	-10.7003
▁anticancer	-10.7003
small	-10.7011
▁slight	-10.7011
8).	-10.7013
Characterization	-10.7014
▁75%	-10.7014
nuclear	-10.7016
▁lymphoid	-10.7023
▁ultra	-10.7023
▁paired	-10.7025
▁analog	-10.7028
▁equally	-10.7031
▁ethnic	-10.7032
▁eggs	-10.7035
▁processed	-10.7036
GM	-10.7038
HIV	-10.7038
▁Bacillus	-10.7039
▁sea	-10.7041
▁division	-10.7044
▁breathing	-10.7048
5).	-10.7051
thio	-10.7052
▁partly	-10.7055
▁staging	-10.7057
▁kidneys	-10.7057
late	-10.7057
▁Cross	-10.7062
tra	-10.7062
▁Similarly	-10.7063
▁cessation	-10.7065
uria	-10.7066
HP	-10.7067
▁list	-10.7067
▁acting	-10.7069
▁dispersion	-10.7071
▁aneurysms	-10.7071
▁activating	-10.7071
7).	-10.7078
▁sound	-10.7079
▁construction	-10.7079
0.9	-10.7084
▁formula	-10.7085
▁Factors	-10.7088
▁placental	-10.7092
▁modulated	-10.7094
62	-10.7101
▁2.6	-10.7102
▁revision	-10.7105
▁se	-10.7106
▁influencing	-10.711
▁Due	-10.7111
▁statistics	-10.7112
mic	-10.7117
▁systematically	-10.7119
weighted	-10.7119
DP	-10.7126
▁inadequate	-10.7128
▁locally	-10.7131
▁1999	-10.7132
▁preservation	-10.7134
▁phosphorylated	-10.7136
log	-10.7145
▁smoke	-10.7147
▁estradiol	-10.7149
▁novo	-10.7149
▁precursors	-10.7152
▁2008	-10.7155
▁MATERIAL	-10.7156
▁violence	-10.7158
▁empirical	-10.7158
ped	-10.7158
▁CB	-10.7173
ual	-10.7176
▁compartment	-10.7177
▁progenitor	-10.7177
▁Electro	-10.7179
▁15%	-10.7179
wave	-10.7179
▁analgesia	-10.7179
▁trait	-10.718
DF	-10.7181
MM	-10.7183
▁socioeconomic	-10.7187
ward	-10.7198
02	-10.7199
lip	-10.7203
▁neuropathy	-10.7204
▁insufficient	-10.7206
▁frame	-10.7215
molecular	-10.7216
▁examples	-10.7218
▁TP	-10.7219
▁2%	-10.722
FU	-10.7222
▁osteoporosis	-10.7225
▁chosen	-10.7227
▁accelerated	-10.7227
▁TA	-10.723
▁cyclin	-10.7231
▁protected	-10.7233
▁anomalies	-10.7233
▁85	-10.7242
▁modality	-10.7244
▁contributions	-10.7246
▁select	-10.7248
▁cerevisiae	-10.725
▁currents	-10.725
▁transferred	-10.7251
▁NT	-10.7252
6).	-10.7253
▁cardiomyopathy	-10.7254
▁noninvasive	-10.7257
▁State	-10.7257
▁mandibular	-10.7261
▁steroids	-10.7262
▁Ma	-10.7263
layer	-10.7268
▁SI	-10.7268
▁resin	-10.7272
9%	-10.7273
▁weekly	-10.7273
▁follicular	-10.7273
logical	-10.7275
▁again	-10.7276
▁picture	-10.728
ric	-10.7283
▁monkeys	-10.7287
IFN	-10.7287
▁orbital	-10.7289
▁transformed	-10.7289
0.3	-10.7292
▁RP	-10.7296
▁April	-10.7298
ert	-10.7301
52	-10.7302
3),	-10.7306
▁ankle	-10.7313
▁upstream	-10.7316
▁MP	-10.7318
▁considerations	-10.7325
].	-10.7331
▁usual	-10.7332
▁applying	-10.7332
▁income	-10.7334
▁Different	-10.7334
▁mini	-10.7336
▁helpful	-10.7337
▁examining	-10.7338
▁RR	-10.734
▁offered	-10.734
▁surveys	-10.7344
▁ultrasonography	-10.7344
0.5	-10.7346
ogenesis	-10.7349
▁2011	-10.7352
ron	-10.7353
▁2.7	-10.7354
▁triple	-10.7354
▁meet	-10.7363
500	-10.7363
▁algorithms	-10.7368
▁DISCUSSION	-10.7369
▁electrodes	-10.737
▁Sixty	-10.7371
▁vertebral	-10.7373
▁meat	-10.7376
▁CM	-10.7382
▁(30	-10.7383
▁PH	-10.7385
ions	-10.7386
OC	-10.7387
▁orally	-10.7387
▁Subjects	-10.7397
▁(100	-10.7398
▁searched	-10.7401
▁cyclo	-10.7405
▁mammals	-10.7405
▁aspect	-10.7405
▁stereo	-10.7412
▁HT	-10.7414
▁NA	-10.742
▁WT	-10.7421
if	-10.7424
▁Bo	-10.7429
▁September	-10.7431
▁why	-10.7431
▁partners	-10.7432
AN	-10.7433
▁static	-10.7435
ice	-10.7438
▁Tumor	-10.7447
bo	-10.7448
▁opening	-10.745
▁transform	-10.7452
▁functionally	-10.7453
length	-10.7456
▁HP	-10.7458
▁numerical	-10.7458
▁epigenetic	-10.746
▁adjusting	-10.7463
▁Ti	-10.7464
▁circadian	-10.7464
SV	-10.7477
▁renin	-10.7477
▁pharmaceutical	-10.7481
▁utilizing	-10.7487
▁1.3	-10.7489
▁PT	-10.7489
▁2012	-10.7496
▁recordings	-10.7497
▁property	-10.7497
▁peroxide	-10.7504
directed	-10.7505
▁cytosolic	-10.7505
▁attempts	-10.7505
▁genomes	-10.7506
tor	-10.7507
▁investigating	-10.751
▁serial	-10.7517
▁inverse	-10.7518
▁fertility	-10.7519
▁conductance	-10.7519
▁becomes	-10.7524
▁schools	-10.7527
▁mitogen	-10.7527
▁homo	-10.7528
▁ES	-10.7531
▁Short	-10.7531
-2,	-10.7532
▁horizontal	-10.7532
▁intermittent	-10.7533
cent	-10.7535
▁season	-10.7535
▁SV	-10.7537
▁waves	-10.7537
▁olfactory	-10.7538
chloro	-10.7538
chemical	-10.7539
▁relief	-10.754
▁eligible	-10.754
selective	-10.7543
▁Ser	-10.7548
▁cues	-10.7549
sa	-10.7551
▁stabilization	-10.7552
▁goals	-10.7553
8+	-10.7555
weight	-10.7556
▁anion	-10.7561
va	-10.7565
▁parasites	-10.7566
74	-10.7568
ax	-10.757
-19	-10.7572
▁Differences	-10.7572
▁exposures	-10.7573
▁cardio	-10.7573
▁ones	-10.7573
▁Diagnosis	-10.7574
▁hemi	-10.7576
▁predictions	-10.758
▁university	-10.758
▁Wistar	-10.7584
ect	-10.7585
▁competition	-10.7588
▁upregulated	-10.759
▁powder	-10.7594
▁shifts	-10.7597
▁themselves	-10.7603
▁conservative	-10.7604
▁infrared	-10.7605
▁gives	-10.761
TH	-10.7616
▁fold	-10.7618
▁gait	-10.7618
▁Brazil	-10.762
▁(11	-10.7623
ug	-10.7627
qui	-10.7629
▁General	-10.763
kDa	-10.7632
▁Detection	-10.7633
▁applicable	-10.7637
▁quite	-10.7637
▁Median	-10.7639
NR	-10.764
▁(0.1	-10.764
▁61	-10.7641
▁Administration	-10.7646
▁optimum	-10.7646
GE	-10.7647
▁me	-10.7647
▁Program	-10.7649
da	-10.7649
cc	-10.7655
mp	-10.7656
▁GI	-10.7658
▁circular	-10.766
▁Ph	-10.7662
▁NC	-10.7665
▁extensively	-10.7666
▁%)	-10.7667
▁sudden	-10.7669
performance	-10.7671
▁dosing	-10.7672
▁naturally	-10.7672
RD	-10.7678
▁antibacterial	-10.7678
▁oligonucleotide	-10.7682
▁MA	-10.7689
▁ovary	-10.769
▁partner	-10.7692
ll	-10.7693
▁So	-10.7694
▁incident	-10.7695
▁injured	-10.7698
▁Asian	-10.7698
making	-10.7699
▁ecological	-10.77
▁electrochemical	-10.7705
▁homogeneous	-10.7709
▁dark	-10.7714
▁microarray	-10.7715
▁English	-10.7718
▁manual	-10.7721
▁(200	-10.7723
▁(18	-10.7727
▁myocardium	-10.7729
▁silica	-10.7729
▁rich	-10.7732
our	-10.7733
▁massive	-10.7738
▁Oral	-10.774
FI	-10.7742
▁incomplete	-10.7744
▁clone	-10.7752
seven	-10.7754
▁HER	-10.7756
▁biofilm	-10.7756
▁promotion	-10.7764
▁pollution	-10.7767
▁Future	-10.7767
▁grafting	-10.7768
▁pleural	-10.7775
dL	-10.7776
▁arising	-10.7776
▁fibro	-10.7781
nes	-10.7781
Cu	-10.7782
▁hypothalamic	-10.7785
▁fashion	-10.7787
▁narrow	-10.7787
being	-10.779
▁Impact	-10.7794
▁pore	-10.7795
▁impacts	-10.7798
graphy	-10.7803
mal	-10.7804
▁arthroplasty	-10.7804
▁1998	-10.7808
▁MAP	-10.7808
Pro	-10.7809
▁definitive	-10.7813
▁foreign	-10.7813
▁mRNAs	-10.7813
▁prescription	-10.7822
(6)	-10.7823
▁CRP	-10.7827
▁neo	-10.783
▁preserved	-10.783
▁Diagnostic	-10.783
▁causal	-10.7831
9).	-10.7835
MV	-10.7843
▁October	-10.7847
nic	-10.7849
▁2.8	-10.7849
Al	-10.7851
HI	-10.7852
▁PL	-10.7858
toxic	-10.7862
▁fourth	-10.7863
▁tandem	-10.7865
▁enough	-10.7867
▁hernia	-10.7868
▁z	-10.7872
▁postmenopausal	-10.7876
▁inactive	-10.7881
▁deprivation	-10.7881
▁leukocytes	-10.7881
▁served	-10.7882
▁Bone	-10.7883
▁stored	-10.7889
▁Car	-10.7889
den	-10.7891
▁took	-10.7897
▁limiting	-10.7898
genesis	-10.79
▁STAT	-10.7907
▁glial	-10.7909
<0.001).	-10.7909
▁similarly	-10.7909
▁night	-10.7911
▁private	-10.7912
ym	-10.7913
GR	-10.7915
▁conservation	-10.7917
▁extreme	-10.7917
▁polymers	-10.7919
(2))	-10.792
▁suppress	-10.7922
metry	-10.7923
▁arise	-10.7924
ATP	-10.7925
▁dexamethasone	-10.7927
defined	-10.7927
▁GA	-10.7929
▁sh	-10.7932
▁migraine	-10.7932
▁exception	-10.7935
▁expanded	-10.7938
▁structured	-10.7938
%;	-10.7939
▁sensing	-10.7941
▁meal	-10.7942
driven	-10.7947
▁restoration	-10.7956
actin	-10.7956
▁geometry	-10.7957
▁usage	-10.7959
▁specimen	-10.7959
ations	-10.796
)(	-10.7961
▁socio	-10.7965
▁discusses	-10.7965
▁copy	-10.797
ger	-10.7972
▁profiling	-10.7972
▁silver	-10.7972
DH	-10.7994
▁glioma	-10.7997
▁Photo	-10.7997
vascularization	-10.8002
▁prove	-10.8003
king	-10.8004
▁completion	-10.8005
▁attached	-10.8007
▁asymmetric	-10.8012
".	-10.8013
▁hemo	-10.8014
▁Ang	-10.8014
▁neurologic	-10.8015
OM	-10.8016
ct	-10.8025
ato	-10.8025
▁CAD	-10.8025
71	-10.8029
▁Ne	-10.8029
▁cation	-10.8029
▁finger	-10.8032
shaped	-10.8032
▁EGF	-10.8035
):	-10.8046
▁persistence	-10.8047
▁SM	-10.8047
nucleotide	-10.8047
▁tau	-10.8049
▁5'	-10.8049
▁sucrose	-10.8049
▁axons	-10.805
GH	-10.8057
ea	-10.8057
OD	-10.8058
om	-10.8062
▁0.7	-10.8065
▁la	-10.8067
ick	-10.8072
▁aspirin	-10.8083
▁SO	-10.8084
▁phenomena	-10.8084
▁epidemic	-10.8089
3+	-10.8089
▁gram	-10.8094
▁molar	-10.8097
▁tachycardia	-10.81
CG	-10.8103
▁trace	-10.8116
▁RE	-10.8116
▁PG	-10.8118
MF	-10.8129
82	-10.813
▁assumed	-10.813
The	-10.8131
▁Canada	-10.8136
▁ligation	-10.8138
▁miRNAs	-10.8138
▁MM	-10.8141
▁Renal	-10.8142
▁corrected	-10.8145
▁adapted	-10.8148
▁enrichment	-10.8149
▁thrombin	-10.8151
ber	-10.8152
▁NR	-10.8152
▁RV	-10.8152
▁cure	-10.8153
▁giant	-10.8156
▁calculation	-10.8156
▁immature	-10.8162
hr	-10.8163
▁ppm	-10.8168
▁remarkable	-10.8169
position	-10.8171
▁emergence	-10.8175
▁promise	-10.8178
catenin	-10.8178
band	-10.8179
▁RNAs	-10.818
▁clinics	-10.8188
▁comprising	-10.8189
▁1997	-10.8191
▁magnesium	-10.8192
▁osteo	-10.8193
▁peroxidation	-10.8196
▁connected	-10.8197
ns	-10.8201
▁Brain	-10.8202
▁erythrocyte	-10.8204
▁elective	-10.8205
acid	-10.8205
▁MAPK	-10.8209
▁cultural	-10.8215
▁attack	-10.822
(-1))	-10.822
OP	-10.822
▁cerebrospinal	-10.8228
▁exert	-10.8232
▁(50	-10.8242
▁amplified	-10.8245
bis	-10.8247
ix	-10.8254
▁20-	-10.8254
▁forward	-10.8255
-11	-10.8256
▁polarization	-10.8257
0.7	-10.8263
▁crystals	-10.8265
▁elucidated	-10.8267
▁surfactant	-10.8267
▁RF	-10.8268
▁allograft	-10.8273
▁thresholds	-10.8276
▁centre	-10.8279
▁PGE	-10.8282
▁echo	-10.8284
▁efflux	-10.8289
TF	-10.829
▁law	-10.8291
▁prosthesis	-10.8292
▁connectivity	-10.8293
▁siRNA	-10.8294
ino	-10.8299
ometric	-10.8301
▁job	-10.8303
▁encodes	-10.8306
▁insurance	-10.8307
▁microorganisms	-10.8307
ull	-10.831
▁formulations	-10.8313
▁stimulating	-10.8317
▁Information	-10.8327
▁Social	-10.833
▁autonomic	-10.8332
▁perinatal	-10.8334
▁tone	-10.8335
▁anaesthesia	-10.8336
responsive	-10.8337
▁tip	-10.834
▁equations	-10.8341
▁glycogen	-10.8341
▁rule	-10.8346
▁capability	-10.8348
toxin	-10.8348
▁zero	-10.8357
▁manipulation	-10.8359
▁sometimes	-10.8364
▁verified	-10.8371
▁USA	-10.8371
▁myeloma	-10.8372
▁moderately	-10.8373
▁pigment	-10.8375
▁maps	-10.8377
tropic	-10.8379
▁market	-10.8381
▁suspension	-10.8384
▁incontinence	-10.8387
▁sc	-10.8391
▁building	-10.8392
▁dilution	-10.8396
▁3'	-10.8398
▁perspectives	-10.8398
▁NaCl	-10.8406
Se	-10.8407
▁atom	-10.8409
▁carcinogenesis	-10.8411
▁cyclase	-10.8412
▁envelope	-10.8412
▁latent	-10.8413
▁establishment	-10.8413
NK	-10.8415
▁BC	-10.8418
▁4.5	-10.8421
▁mediating	-10.8434
light	-10.8439
cells	-10.844
▁granules	-10.844
BT	-10.8442
▁anatomic	-10.8446
▁discrete	-10.8451
▁PF	-10.8451
▁TF	-10.8453
▁coping	-10.8455
normal	-10.8458
▁extend	-10.8458
▁ambulatory	-10.846
▁1995	-10.846
0)	-10.8461
tan	-10.8462
▁America	-10.8464
▁principle	-10.8466
▁Prospective	-10.8467
ep	-10.8474
▁too	-10.8476
▁Ac	-10.8477
▁interpreted	-10.8479
▁PARTICIPANTS	-10.8481
1.3	-10.8483
ras	-10.8485
®	-10.8488
▁abscess	-10.8492
▁(25	-10.8496
▁representation	-10.8498
▁0.0001)	-10.8498
BMI	-10.8501
▁minimally	-10.8507
▁Raman	-10.8507
▁postpartum	-10.8507
▁multicenter	-10.8508
4),	-10.8509
▁covered	-10.851
plastic	-10.8513
▁attenuation	-10.8514
▁branch	-10.8515
▁expressions	-10.8516
▁separately	-10.8517
▁Sa	-10.8518
▁cranial	-10.8519
▁0.9	-10.8521
▁weights	-10.8522
fed	-10.8524
▁Prevalence	-10.8525
adrenergic	-10.8528
▁switch	-10.8528
▁overlap	-10.8528
▁astrocytes	-10.853
CoA	-10.853
tu	-10.853
▁destruction	-10.8532
▁rational	-10.8534
▁focuses	-10.8537
▁apo	-10.8544
▁determinant	-10.8545
ps	-10.8545
▁palliative	-10.8548
▁mathematical	-10.8555
▁Statistical	-10.8555
▁Australian	-10.8556
▁analyzing	-10.8558
▁additive	-10.8562
▁adhesive	-10.8563
▁regulators	-10.8564
ung	-10.8566
▁Pi	-10.8568
▁chi	-10.8571
▁Streptococcus	-10.8571
pt	-10.8572
▁peaks	-10.8573
▁69	-10.8575
▁ulcers	-10.8579
▁illustrate	-10.8581
▁caries	-10.8583
▁upregulation	-10.8584
aemia	-10.8584
▁scoring	-10.8586
Rs	-10.8587
▁irradiated	-10.8594
▁nephropathy	-10.8597
▁TG	-10.8598
▁VA	-10.8601
▁unable	-10.8601
PET	-10.8602
Ag	-10.8602
RM	-10.8603
▁behavioural	-10.8603
▁chromatographic	-10.8604
cer	-10.8605
mass	-10.8607
gen	-10.8611
▁microm	-10.8612
atus	-10.8614
▁accumulated	-10.8618
1;	-10.8618
▁Wnt	-10.8619
▁descriptive	-10.862
07	-10.8621
▁prostatic	-10.8621
LM	-10.8623
bio	-10.8623
▁Report	-10.8624
ids	-10.8626
ogen	-10.8626
▁grow	-10.863
ense	-10.8632
92	-10.8634
sensitivity	-10.8637
▁Pain	-10.8638
▁ejection	-10.8641
▁intense	-10.8647
eno	-10.8649
▁blotting	-10.865
▁Male	-10.8656
▁policies	-10.8658
▁SLE	-10.8662
▁ethical	-10.8662
SH	-10.867
▁Am	-10.8671
▁umbilical	-10.8672
▁transfection	-10.8673
af	-10.8674
▁words	-10.8675
▁mediates	-10.8677
▁scaffold	-10.8679
▁autosomal	-10.8679
▁caregivers	-10.8681
▁prevents	-10.8683
HB	-10.8685
▁relations	-10.869
▁PSA	-10.869
▁session	-10.8692
▁inform	-10.8692
▁cleft	-10.8692
▁IU	-10.8697
▁hypoxic	-10.8697
▁fermentation	-10.8701
▁Model	-10.8702
ster	-10.8706
▁harm	-10.8707
▁apparatus	-10.8708
▁TR	-10.8708
▁2013	-10.8711
▁she	-10.8714
▁capsule	-10.8714
▁go	-10.8715
▁ingestion	-10.8722
09	-10.8723
▁BMD	-10.8726
▁trigger	-10.8727
▁isoform	-10.8728
▁cascade	-10.873
▁Cardiac	-10.8731
▁His	-10.8734
▁allergy	-10.8738
propyl	-10.8739
▁obvious	-10.8739
▁calculate	-10.8741
▁ACE	-10.8743
▁angina	-10.8745
▁74	-10.8745
▁ectopic	-10.8746
ho	-10.8751
▁quantitatively	-10.8752
logists	-10.8755
LF	-10.8755
▁Additional	-10.8759
▁CRC	-10.876
onic	-10.8761
▁duodenal	-10.8766
zo	-10.8768
▁charged	-10.8769
▁graphene	-10.877
▁nucleotides	-10.8771
▁equipment	-10.8772
▁prolactin	-10.8772
▁fetuses	-10.8776
▁continuously	-10.8778
▁Growth	-10.8779
ses	-10.878
▁wk	-10.8788
▁lesser	-10.8791
▁endemic	-10.8793
▁achieving	-10.8795
▁myosin	-10.8796
▁hearts	-10.8798
▁elastic	-10.88
▁student	-10.8801
▁seasonal	-10.8803
▁wounds	-10.8808
▁believe	-10.881
▁breeding	-10.8811
▁Indian	-10.8811
▁recognize	-10.8812
▁splicing	-10.8816
▁contractile	-10.8822
▁transplanted	-10.8822
▁purposes	-10.8822
▁transmitted	-10.8827
▁transitions	-10.8828
▁unstable	-10.883
▁sequenced	-10.8832
statin	-10.8836
sc	-10.8844
▁aggregates	-10.8848
▁3.2	-10.8849
▁poisoning	-10.8851
meric	-10.8851
81	-10.8852
▁details	-10.8853
atory	-10.8856
▁fluoride	-10.8861
▁77	-10.8863
dy	-10.8868
▁76	-10.8869
pe	-10.887
▁SNPs	-10.887
cis	-10.8871
bp	-10.8872
1.5	-10.8875
PK	-10.8877
▁wastewater	-10.888
▁Depression	-10.8884
▁patho	-10.8886
06	-10.8887
▁financial	-10.8889
▁shunt	-10.8892
▁Liver	-10.8895
0%	-10.8901
▁doctors	-10.8901
▁validate	-10.8902
ologic	-10.8903
ck	-10.8908
▁Therapy	-10.8908
▁ratings	-10.891
▁ADHD	-10.891
▁fate	-10.8911
▁BM	-10.8911
▁abnormality	-10.8913
05	-10.8915
▁disturbance	-10.8916
▁supplemented	-10.8916
▁cholinergic	-10.8919
▁cigarette	-10.8921
▁attractive	-10.8922
▁fragmentation	-10.8922
▁observe	-10.8923
▁visceral	-10.8925
▁melatonin	-10.8926
▁78	-10.8928
▁Ta	-10.893
stranded	-10.893
▁mouth	-10.8933
▁Northern	-10.8935
NI	-10.8936
▁joints	-10.8937
300	-10.8939
▁slices	-10.8943
▁Phase	-10.8944
ise	-10.8946
▁penetration	-10.8947
▁maxillary	-10.8947
can	-10.8948
▁run	-10.8948
ned	-10.8949
▁3%	-10.8952
▁exploration	-10.8953
iii	-10.8956
▁Diabetes	-10.8959
▁consent	-10.8959
fat	-10.896
▁Retrospective	-10.8961
▁1996	-10.8963
▁uniform	-10.8973
▁examines	-10.8975
▁Prevention	-10.8978
▁NMDA	-10.8978
▁masses	-10.8979
▁testis	-10.8979
▁phospholipid	-10.898
effective	-10.8981
▁lumen	-10.8982
▁inversely	-10.8986
ivity	-10.8989
GI	-10.8989
▁assayed	-10.899
▁arginine	-10.8991
▁HL	-10.8992
▁macular	-10.8993
▁perforation	-10.8993
▁(13	-10.8993
▁ID	-10.8995
▁inserted	-10.8995
ong	-10.8997
▁fibres	-10.8997
▁minimize	-10.8998
2;	-10.9001
▁suffered	-10.9002
▁Herein	-10.901
not	-10.901
▁radicals	-10.9013
▁MEASURES	-10.9015
▁VO	-10.9016
▁HS	-10.9016
▁athletes	-10.9017
▁tibial	-10.9018
▁hot	-10.9019
LABELLED	-10.902
▁cohorts	-10.902
▁dimension	-10.902
ost	-10.902
glucose	-10.9023
inositol	-10.9025
▁episode	-10.9027
fen	-10.9027
▁Novel	-10.903
▁adopted	-10.9032
▁marginal	-10.9034
-16	-10.9037
▁HO	-10.9037
▁pooled	-10.9038
ach	-10.9038
cap	-10.9038
▁conditioned	-10.9043
ND	-10.9045
▁historical	-10.9048
▁conditioning	-10.9048
▁inpatient	-10.9051
▁insect	-10.9053
▁Be	-10.9053
▁meeting	-10.9053
▁replaced	-10.9063
▁colonization	-10.9067
}	-10.9069
amp	-10.907
etic	-10.9074
delta	-10.9081
▁constitute	-10.9083
GT	-10.9085
▁calibration	-10.9097
▁-1	-10.9099
▁Application	-10.9101
▁frozen	-10.9102
▁consistency	-10.9104
▁Physical	-10.9105
▁dioxide	-10.9107
▁dermatitis	-10.9108
(+)-	-10.9113
▁leakage	-10.9114
▁burn	-10.9116
▁ACTH	-10.912
▁intraocular	-10.9121
▁integrin	-10.9122
meter	-10.9127
▁allo	-10.9127
energy	-10.9131
tumor	-10.9132
▁Germany	-10.9133
Cr	-10.9134
-30	-10.9136
ening	-10.9137
▁Lo	-10.9142
▁kappa	-10.9143
butyl	-10.9144
▁surgically	-10.9145
▁CK	-10.9151
▁synergistic	-10.9151
▁Nine	-10.9152
▁spectroscopic	-10.9152
▁5,	-10.9152
▁71	-10.9155
▁miRNA	-10.9156
0.00	-10.9156
les	-10.9156
▁crude	-10.9157
▁(0	-10.9159
▁prophylactic	-10.916
▁analgesic	-10.916
▁anastomosis	-10.9161
<0.05)	-10.9162
▁apply	-10.9164
▁yr	-10.9169
▁lithium	-10.9172
▁epidural	-10.9175
▁contaminated	-10.9176
▁Hence	-10.9176
▁enter	-10.9179
und	-10.9181
▁deterioration	-10.9182
▁Saccharomyces	-10.9183
▁chemicals	-10.9188
▁contractions	-10.9188
▁otherwise	-10.919
08	-10.919
▁ionization	-10.9192
eurodegenerative	-10.9194
▁antiretroviral	-10.9194
▁psoriasis	-10.9194
▁antigenic	-10.9194
▁conjunction	-10.9194
▁immunosorbent	-10.9197
▁exclusion	-10.9198
▁PV	-10.9198
▁character	-10.9198
▁neoplastic	-10.9199
▁flexion	-10.92
▁15-	-10.9201
▁trypsin	-10.9202
SCs	-10.9204
▁knockdown	-10.9206
▁malformations	-10.9206
▁Pulmonary	-10.9209
virus	-10.921
cyst	-10.921
▁criterion	-10.9214
▁tRNA	-10.9215
drug	-10.9219
▁directions	-10.9223
-5-	-10.9228
▁recipient	-10.9233
▁TH	-10.9233
▁allogeneic	-10.9234
▁triggered	-10.9235
▁Exposure	-10.9237
mann	-10.924
▁VI	-10.9244
▁approved	-10.9245
▁phage	-10.9248
61	-10.9248
▁conceptual	-10.9249
▁stimulates	-10.925
▁Life	-10.9252
vis	-10.9253
▁ATPase	-10.9256
▁dense	-10.9258
▁subsets	-10.9258
▁converted	-10.926
▁180	-10.9263
▁giving	-10.9266
▁provision	-10.9267
▁im	-10.9269
▁papillary	-10.9273
▁modify	-10.9274
▁attributable	-10.9283
▁2016	-10.9283
▁folding	-10.9284
▁dairy	-10.9284
▁aberrant	-10.9287
ero	-10.929
▁radiographs	-10.9291
▁August	-10.9291
▁hence	-10.9292
▁drop	-10.9292
▁mechanistic	-10.9294
▁reaching	-10.9295
▁reproducibility	-10.9297
▁inducible	-10.9297
▁FSH	-10.9298
including	-10.9298
-6-	-10.9299
▁knockout	-10.9303
▁respiration	-10.9304
▁ad	-10.9306
▁cardiopulmonary	-10.9307
▁transforming	-10.9308
▁fibrinogen	-10.9309
▁inhalation	-10.9309
ethylene	-10.9311
▁fluids	-10.9314
UC	-10.9323
▁defective	-10.9324
▁bioavailability	-10.9324
▁endoscopy	-10.9326
tes	-10.9327
TD	-10.9327
▁objectives	-10.9329
▁densities	-10.9329
▁dopaminergic	-10.9332
ulin	-10.9333
SG	-10.9333
com	-10.9335
▁contacts	-10.9337
ible	-10.9338
▁fluctuations	-10.9339
ping	-10.9346
ura	-10.9348
▁But	-10.9351
▁parathyroid	-10.9351
▁informed	-10.9351
eo	-10.9353
gram	-10.9361
▁Structural	-10.9362
▁pan	-10.9364
cellular	-10.9365
istic	-10.9366
▁(0.5	-10.9366
▁BA	-10.9368
ran	-10.9369
▁0.0001).	-10.9371
▁saliva	-10.9372
▁phosphorus	-10.9376
▁entity	-10.9377
▁Nano	-10.9379
▁Ab	-10.938
▁sediment	-10.9387
▁resuscitation	-10.9389
▁Multivariate	-10.9395
▁0.05),	-10.9395
▁universal	-10.9396
▁cyto	-10.94
lipid	-10.9401
▁reproduction	-10.9403
arginine	-10.9407
dr	-10.9408
▁transverse	-10.9408
▁attending	-10.941
▁hypothalamus	-10.9413
aza	-10.9414
▁land	-10.9417
▁infarct	-10.9417
mu	-10.9421
▁Small	-10.9423
ier	-10.9423
▁call	-10.9424
▁explanation	-10.9431
NPs	-10.9433
▁Together	-10.9433
▁laboratories	-10.9433
▁cognition	-10.9433
=1	-10.9434
▁constructs	-10.9435
▁ganglia	-10.9435
▁demonstration	-10.9438
▁Second	-10.9441
▁ranges	-10.9443
▁Determination	-10.9444
▁lymphatic	-10.9444
▁preferentially	-10.9444
▁osteoarthritis	-10.9448
▁ultimately	-10.9449
▁verbal	-10.9451
AE	-10.9451
120	-10.9454
(-/-)	-10.9455
▁modulating	-10.9455
▁recall	-10.9457
▁German	-10.9457
ign	-10.9459
▁2.9	-10.9465
lk	-10.9467
expressing	-10.9473
▁Even	-10.9475
▁extremity	-10.9476
▁Tissue	-10.9479
cycle	-10.9479
▁Akt	-10.9481
▁isotope	-10.9482
BF	-10.9484
▁oxidized	-10.9486
▁template	-10.9486
▁immunotherapy	-10.9486
-60	-10.9487
▁uncertainty	-10.9489
▁attempted	-10.9489
▁stratified	-10.949
spir	-10.9493
azine	-10.9494
▁becoming	-10.9494
▁ambient	-10.9499
▁ubiquitin	-10.9499
▁TC	-10.95
▁losses	-10.9501
▁meningitis	-10.9504
▁silencing	-10.9504
▁heme	-10.9506
▁correctly	-10.951
ries	-10.951
▁73	-10.9511
▁AM	-10.9518
▁Differential	-10.9526
▁adulthood	-10.9528
▁round	-10.9536
PN	-10.9537
▁preclinical	-10.9537
gal	-10.954
▁Understanding	-10.954
▁objects	-10.9545
▁dismutase	-10.9545
lysis	-10.9547
▁Outcomes	-10.9551
▁cap	-10.9552
▁clustering	-10.9554
▁SB	-10.9558
function	-10.9559
]-	-10.9563
he	-10.9563
▁mitotic	-10.9566
▁quantity	-10.9569
▁missing	-10.9569
▁ab	-10.957
bearing	-10.9572
▁Findings	-10.9573
▁codon	-10.9578
▁specialized	-10.9582
Re	-10.9586
mat	-10.9588
▁carry	-10.9588
▁visualization	-10.9588
▁activates	-10.9592
▁enabled	-10.9595
▁Delta	-10.9597
0.6	-10.9599
▁know	-10.9599
200	-10.96
▁sum	-10.9602
▁Response	-10.9604
▁Neither	-10.9605
▁SDS	-10.9606
cytes	-10.9607
▁forest	-10.9609
▁matching	-10.961
▁connection	-10.9612
▁Men	-10.9613
▁0.06	-10.9615
factor	-10.9617
▁striatum	-10.9618
▁2014	-10.9619
03	-10.9621
▁tracking	-10.9622
▁avoidance	-10.9624
LR	-10.9625
fe	-10.9626
▁Specific	-10.9628
sin	-10.963
▁eukaryotic	-10.9631
rated	-10.9633
▁3.1	-10.9633
sub	-10.9637
▁fecal	-10.9639
04	-10.9641
▁GR	-10.9641
▁abilities	-10.9642
▁twenty	-10.9643
▁NSCLC	-10.9647
▁designated	-10.9648
▁Various	-10.9649
▁remove	-10.9649
▁CASE	-10.9651
▁0.001	-10.9651
▁conduct	-10.9656
▁Para	-10.9656
▁FT	-10.9658
▁gained	-10.9659
▁Can	-10.966
▁varies	-10.9661
years	-10.9662
del	-10.9663
▁reflects	-10.9663
▁institutions	-10.9664
▁soils	-10.9664
▁septic	-10.9665
▁integral	-10.9667
▁employing	-10.9669
acting	-10.9671
coated	-10.9671
▁evolved	-10.9673
▁predicts	-10.9673
pan	-10.9676
▁drawn	-10.9679
▁adenoma	-10.968
set	-10.9681
Br	-10.9685
▁4.0	-10.9687
▁coherence	-10.969
▁acyl	-10.9695
▁WHO	-10.9695
▁trunk	-10.9696
3.5	-10.9698
▁bacterium	-10.9701
head	-10.9703
▁sensitization	-10.9704
▁immobilized	-10.9707
0.8	-10.9708
▁Pt	-10.9709
▁century	-10.9709
▁spindle	-10.9709
▁drive	-10.9712
▁analogs	-10.9712
▁kb	-10.9713
▁genital	-10.9715
▁Ha	-10.9715
tar	-10.9715
▁reproducible	-10.9716
ometry	-10.9717
▁bar	-10.9717
▁mV	-10.9719
▁norepinephrine	-10.9719
▁septal	-10.972
▁HSP	-10.972
▁hydroxyl	-10.9721
▁belonging	-10.9722
▁beliefs	-10.9724
▁Sc	-10.9724
▁margin	-10.9725
▁atherosclerotic	-10.9726
▁edge	-10.9727
▁ipsilateral	-10.973
▁eliminated	-10.973
▁horses	-10.9731
▁mercury	-10.9731
cor	-10.9732
▁pulses	-10.9734
patient	-10.9735
▁prefrontal	-10.9735
polar	-10.9736
1.4	-10.9745
▁path	-10.9745
▁polymerization	-10.9747
▁AUC	-10.9753
▁ADP	-10.9758
cyclo	-10.9763
▁intraperitoneal	-10.9766
▁veins	-10.9767
▁filling	-10.9768
affinity	-10.9772
gest	-10.9773
UR	-10.9778
choline	-10.9779
▁hosts	-10.9779
RC	-10.9779
▁clonal	-10.978
▁methanol	-10.9781
▁SNP	-10.9782
mes	-10.9784
CK	-10.9784
▁UC	-10.9792
bl	-10.9797
2.1	-10.98
▁intubation	-10.98
ga	-10.98
▁iodine	-10.9802
▁generating	-10.9803
▁Organization	-10.9804
▁outbreak	-10.9807
▁Cochrane	-10.9808
▁running	-10.9814
▁slower	-10.9815
▁phospholipase	-10.9824
▁DI	-10.9825
▁retro	-10.9828
effectiveness	-10.983
▁mutagenesis	-10.983
▁describing	-10.983
pr	-10.9833
▁bonding	-10.9834
▁introduce	-10.9835
▁ribosomal	-10.9838
are	-10.9838
▁acetyl	-10.9838
▁Food	-10.984
ka	-10.9846
▁microvascular	-10.9848
4(+)	-10.9849
91	-10.985
▁AI	-10.9851
▁fetus	-10.9851
▁5.0	-10.9853
=3	-10.9855
▁LD	-10.9855
▁Sch	-10.9856
▁suture	-10.9856
acetate	-10.9858
▁VP	-10.9859
▁endoplasmic	-10.9861
ov	-10.9863
▁personnel	-10.9864
MG	-10.9868
▁Pa	-10.987
▁epitopes	-10.987
▁corticosteroids	-10.987
long	-10.9871
▁GSH	-10.9872
▁corn	-10.9873
uff	-10.9873
▁laryngeal	-10.9874
▁homozygous	-10.9877
▁facilitated	-10.988
▁nucleic	-10.9881
▁epitope	-10.9882
▁4%	-10.9882
▁inorganic	-10.9884
6),	-10.9885
▁oligo	-10.9887
▁reward	-10.989
▁remote	-10.9893
▁glycol	-10.9895
▁0,	-10.9897
epi	-10.9901
ind	-10.9904
therapy	-10.9908
▁paediatric	-10.9909
▁French	-10.9909
▁PK	-10.9911
▁HE	-10.9914
▁cloning	-10.9917
▁inherited	-10.9922
ising	-10.9924
hu	-10.9928
▁seeds	-10.9928
▁normalized	-10.9929
▁reversal	-10.993
▁shell	-10.9931
▁dust	-10.9931
ore	-10.9933
dia	-10.9935
▁palsy	-10.9939
mon	-10.9939
▁Chi	-10.9941
sen	-10.9945
▁glycine	-10.9947
yn	-10.9949
▁art	-10.9952
▁liposomes	-10.9956
▁Arg	-10.9956
▁elicit	-10.9956
▁moiety	-10.9957
brain	-10.9966
▁84	-10.9968
▁TSH	-10.997
▁Pediatric	-10.9971
▁uni	-10.9971
▁counseling	-10.9976
well	-10.9979
▁conclusions	-10.9981
▁square	-10.9984
▁starch	-10.9985
▁periodic	-10.9988
rid	-10.9989
▁Crohn	-10.999
port	-10.9994
▁warranted	-10.9995
exposed	-10.9999
▁poorer	-11.0003
ef	-11.0004
▁EF	-11.0009
oxide	-11.0022
VE	-11.0026
▁(14	-11.0026
▁responding	-11.0031
▁preferences	-11.0032
ON	-11.0038
vert	-11.004
▁retrograde	-11.0041
▁expert	-11.0043
domain	-11.0046
▁plans	-11.0047
▁evaluations	-11.0049
gi	-11.0051
▁abortion	-11.0052
▁Fc	-11.0053
▁influx	-11.0055
▁Activation	-11.0057
▁herpes	-11.006
▁slowly	-11.006
report	-11.0061
au	-11.0069
▁essentially	-11.0073
▁responsive	-11.0074
cl	-11.0076
▁limitation	-11.0079
▁monocyte	-11.008
▁86	-11.008
▁79	-11.0083
coupled	-11.0086
top	-11.0086
▁hexa	-11.0086
3.3	-11.0086
▁methodological	-11.0086
▁manifestation	-11.0089
WT	-11.0097
▁routinely	-11.01
▁[95%	-11.0102
▁plasminogen	-11.0103
▁DATA	-11.0105
▁takes	-11.0106
known	-11.0108
▁eu	-11.0108
▁Examination	-11.0109
▁lysine	-11.0112
▁moving	-11.0114
▁splenic	-11.0114
▁IM	-11.0114
▁Magnetic	-11.0114
effects	-11.0116
▁sampled	-11.0118
▁gastro	-11.0119
▁repetitive	-11.0122
▁embolism	-11.0122
▁complaints	-11.0124
▁messenger	-11.0125
meth	-11.0125
▁Twelve	-11.0127
▁hypotheses	-11.0127
cul	-11.0131
logic	-11.0131
▁Structure	-11.0134
▁optimize	-11.0134
▁label	-11.0135
6.7%	-11.0137
▁MG	-11.0138
▁sporadic	-11.0138
▁cal	-11.0141
cyclic	-11.0142
cause	-11.0143
▁wt	-11.0145
ulated	-11.0147
▁survived	-11.0148
▁dramatic	-11.015
▁summarize	-11.0152
▁Imaging	-11.0155
▁inoculation	-11.0156
expression	-11.0157
▁scaffolds	-11.0159
▁peer	-11.016
▁1994	-11.0167
▁catalyst	-11.0169
▁3.3	-11.017
▁geographic	-11.0173
▁kind	-11.0176
▁courses	-11.0179
▁meso	-11.0179
inter	-11.0182
▁hereditary	-11.0183
▁bis	-11.0183
stimulating	-11.0183
▁follicles	-11.0188
bu	-11.0189
oral	-11.0193
▁inoculated	-11.0197
▁machine	-11.0198
▁penicillin	-11.0199
3.1	-11.0201
▁Breast	-11.0201
RV	-11.0204
▁glucocorticoid	-11.0206
▁careful	-11.0207
my	-11.0207
▁similarities	-11.021
▁etc	-11.021
▁relatives	-11.0213
▁axonal	-11.0215
▁fertilization	-11.022
▁submitted	-11.0221
▁ortho	-11.0222
uring	-11.0226
▁endotoxin	-11.0227
▁spermatozoa	-11.0229
▁CVD	-11.0232
methoxy	-11.0236
▁rings	-11.0236
▁flat	-11.0243
▁commercially	-11.0247
▁Activity	-11.0254
borne	-11.0257
▁Meta	-11.0258
▁TE	-11.026
▁regarded	-11.0262
▁Out	-11.0262
▁motifs	-11.0264
▁distinguished	-11.0264
▁mesenteric	-11.0273
EB	-11.0276
▁Ru	-11.0277
▁proportions	-11.0278
FP	-11.0279
▁compatible	-11.0283
▁ph	-11.0283
2+]	-11.0284
▁breath	-11.0285
▁government	-11.0286
▁Consequently	-11.0287
▁genetics	-11.0287
▁MCF	-11.0292
▁proto	-11.0296
sion	-11.0298
▁November	-11.03
▁Through	-11.03
og	-11.03
▁histologically	-11.0303
ration	-11.0304
8),	-11.0305
▁fibrin	-11.0306
▁(16	-11.0306
▁word	-11.0307
sk	-11.0308
substituted	-11.0308
▁hepato	-11.0313
down	-11.0316
▁Postoperative	-11.0317
▁excitatory	-11.0317
▁participating	-11.0323
▁manage	-11.0326
▁hemorrhagic	-11.0326
▁proinflammatory	-11.0328
▁MDA	-11.0335
▁user	-11.0339
▁elongation	-11.0339
FR	-11.034
ming	-11.0342
▁vomiting	-11.0342
carb	-11.0343
hydro	-11.0346
▁SN	-11.0346
▁cytology	-11.0351
▁hamster	-11.0357
▁bo	-11.0361
▁held	-11.0363
▁TT	-11.0363
▁Higher	-11.0364
ng	-11.0366
▁interacts	-11.0366
▁analyse	-11.0366
▁GnRH	-11.0367
ML	-11.0367
▁slope	-11.0368
▁cellulose	-11.0375
lar	-11.0375
▁HIF	-11.0376
▁aware	-11.0379
▁Increasing	-11.0381
▁proteolytic	-11.0381
▁Hb	-11.0383
▁Cal	-11.0384
▁arrhythmias	-11.0386
▁dia	-11.0391
su	-11.0393
▁views	-11.0395
▁pollen	-11.0398
▁Rapid	-11.0404
threatening	-11.0408
TV	-11.0409
icular	-11.0413
▁forced	-11.0414
deoxy	-11.0414
trophic	-11.042
▁perfused	-11.0422
▁TO	-11.0423
▁tight	-11.0423
▁facility	-11.0426
▁FGF	-11.0426
1%)	-11.0435
mb	-11.0439
iz	-11.0444
7.5	-11.0444
▁trimester	-11.0445
BE	-11.0445
▁PTSD	-11.0445
▁CMV	-11.0446
▁establishing	-11.0448
▁HB	-11.0448
▁profound	-11.0454
▁(17	-11.0454
▁legal	-11.0457
▁chiral	-11.0457
Ab	-11.0458
eri	-11.0459
ency	-11.0462
FS	-11.0462
▁dimer	-11.0468
▁interacting	-11.0468
▁Seventy	-11.0469
coding	-11.0474
▁ART	-11.0475
aw	-11.0475
▁esophagus	-11.0477
▁angioplasty	-11.0477
part	-11.0479
throughput	-11.0482
▁clinicopatholog	-11.0482
▁titers	-11.0486
▁White	-11.0487
▁Secondary	-11.0489
▁Potential	-11.0491
▁February	-11.0493
▁constraints	-11.0495
surgical	-11.0496
▁heterozygous	-11.0499
▁dermal	-11.0503
▁reflecting	-11.0504
▁bolus	-11.0505
▁span	-11.051
▁constituents	-11.051
▁termination	-11.0511
▁consumed	-11.0513
▁zebrafish	-11.0513
▁gp	-11.0514
▁code	-11.0516
▁centres	-11.052
Dawley	-11.0522
▁Plasmodium	-11.0522
▁vocal	-11.0528
▁cerebellum	-11.053
7),	-11.0532
ship	-11.0532
2(	-11.0533
▁biologic	-11.0534
▁resorption	-11.0537
9-	-11.0538
rum	-11.054
1.7	-11.0541
▁cadmium	-11.0542
▁Conversely	-11.0545
▁sludge	-11.0545
microenvironment	-11.0547
▁synovial	-11.0548
▁kinds	-11.0549
▁dilatation	-11.055
omycin	-11.0551
▁thymus	-11.0553
▁[1	-11.0555
▁disulfide	-11.0556
▁biomedical	-11.0557
▁alanine	-11.0557
▁pi	-11.0561
▁rose	-11.0563
▁circumference	-11.0567
▁retinopathy	-11.057
▁neuromuscular	-11.0571
▁HbA	-11.0571
▁rated	-11.0574
▁γ	-11.0574
DV	-11.0574
▁flexibility	-11.0576
▁Dr	-11.0576
▁dislocation	-11.0576
▁ultrastructural	-11.0579
▁evidenced	-11.0581
▁DE	-11.0582
▁agar	-11.0582
-->	-11.0587
3;	-11.0589
rus	-11.0593
▁ethyl	-11.0593
cre	-11.0593
▁3.4	-11.0594
▁vestibular	-11.0595
▁.001)	-11.06
▁BMP	-11.0601
▁physiologic	-11.0601
▁HSV	-11.0604
▁Sprague	-11.0605
LH	-11.0605
▁islet	-11.0606
▁triglyceride	-11.0606
SL	-11.0608
▁distances	-11.0609
400	-11.0609
▁propagation	-11.0609
4.5	-11.0611
▁repeats	-11.0612
▁Adult	-11.0613
hypersensitivity	-11.0614
▁CKD	-11.0615
▁neoplasia	-11.0616
600	-11.0618
ulation	-11.0622
5),	-11.0623
▁plaques	-11.0624
/100	-11.0627
HL	-11.0627
▁strand	-11.0627
▁porous	-11.063
▁southern	-11.063
▁web	-11.0634
▁Mi	-11.0635
▁femur	-11.0639
▁erythematosus	-11.0645
TX	-11.0646
▁fibronectin	-11.065
▁comorbidities	-11.0651
des	-11.0652
▁West	-11.0657
▁transporters	-11.0661
▁antifungal	-11.0662
▁myelin	-11.0664
FF	-11.0664
▁copies	-11.0664
▁EP	-11.0664
quality	-11.0664
▁sulfur	-11.0667
▁Global	-11.067
▁AML	-11.0671
▁25-	-11.0672
-36	-11.0676
▁chance	-11.0677
▁ammonium	-11.0682
▁lo	-11.0683
▁rank	-11.0683
▁PEG	-11.0685
▁ammonia	-11.0685
▁autism	-11.0685
▁pacing	-11.0688
▁played	-11.0688
▁update	-11.0688
▁arrays	-11.0691
▁embedded	-11.0691
▁LT	-11.0697
▁Lung	-11.0699
▁finite	-11.0699
▁schedule	-11.0702
tur	-11.0704
▁augmented	-11.0705
▁des	-11.0706
▁junctions	-11.0711
pin	-11.0711
5.0	-11.0711
▁Importantly	-11.0713
loaded	-11.0714
psychological	-11.0714
called	-11.0715
▁resident	-11.0716
▁albicans	-11.0717
▁Canadian	-11.0718
ROS	-11.0719
▁3.6	-11.0721
▁precipitation	-11.0721
▁foci	-11.0723
▁connective	-11.0723
▁∼	-11.0725
▁pulp	-11.0725
▁biologically	-11.0726
rt	-11.0727
▁incision	-11.0728
▁continues	-11.0728
▁RI	-11.0729
ntihypertensive	-11.0729
OX	-11.073
▁lowered	-11.0733
▁EM	-11.0733
▁expand	-11.0734
▁translational	-11.0734
▁registration	-11.0734
▁persisted	-11.0736
▁structurally	-11.0736
-21	-11.0737
_	-11.0745
opathy	-11.0749
▁wavelength	-11.075
▁arsenic	-11.0754
▁ultrasonic	-11.0757
▁2015	-11.0759
▁obtaining	-11.0759
▁Objective	-11.076
▁lipase	-11.076
▁intermediates	-11.076
▁Score	-11.0761
▁sensors	-11.0762
▁energies	-11.0763
▁affective	-11.0765
▁city	-11.0768
▁northern	-11.0772
▁split	-11.0772
▁limbs	-11.0773
▁MO	-11.0776
▁6%	-11.0778
▁newborns	-11.0779
3.0	-11.0781
▁blind	-11.0782
▁par	-11.0783
▁ver	-11.0784
▁volatile	-11.0784
▁apnea	-11.0784
▁promoters	-11.0786
▁synthetase	-11.0786
lus	-11.0794
ever	-11.0795
dimethyl	-11.0795
rac	-11.0795
▁0.000	-11.0796
ones	-11.0796
eth	-11.0799
▁passage	-11.0801
▁DS	-11.0801
▁gonadotropin	-11.0804
otomy	-11.0805
phen	-11.0806
▁window	-11.0806
▁assisted	-11.0806
6%)	-11.0811
▁ML	-11.0812
▁adding	-11.0813
▁coating	-11.0813
▁Those	-11.0814
▁document	-11.0815
▁estimating	-11.0821
▁household	-11.0823
CAM	-11.0826
du	-11.0826
▁descending	-11.0829
▁tracheal	-11.083
▁embolization	-11.0831
▁6,	-11.0832
▁suffer	-11.0833
din	-11.0836
▁modulates	-11.0836
▁Ig	-11.0836
▁PPAR	-11.0839
▁Insulin	-11.0842
▁winter	-11.0842
▁1980	-11.0842
▁modest	-11.0843
▁Man	-11.0845
▁parietal	-11.0846
tosis	-11.086
▁Class	-11.086
▁finally	-11.0861
tomy	-11.0863
▁mediator	-11.0863
▁conjugated	-11.087
▁Therapeutic	-11.0874
▁gross	-11.0876
▁NADPH	-11.0878
ano	-11.0883
▁Combined	-11.0886
▁Δ	-11.0886
▁cycling	-11.0886
▁leak	-11.0887
▁Rh	-11.0895
syn	-11.0898
▁OP	-11.0901
met	-11.0902
▁infertility	-11.0904
▁highlighted	-11.0905
VT	-11.0905
ley	-11.0905
3.3%	-11.0906
▁retrieval	-11.0906
▁0.25	-11.0907
▁probable	-11.0908
▁idea	-11.0912
▁virtual	-11.0914
releasing	-11.0916
kin	-11.0919
▁automatic	-11.092
1.6	-11.092
▁falciparum	-11.0921
▁cough	-11.0923
▁7.5	-11.0924
▁doxorubicin	-11.0926
▁avian	-11.0927
mit	-11.0932
▁Factor	-11.0933
Is	-11.0933
▁TCR	-11.0943
▁productivity	-11.0946
▁nonspecific	-11.0946
▁Hypo	-11.0947
▁null	-11.0949
▁ago	-11.0952
▁ultraviolet	-11.0955
▁intravenously	-11.0956
▁SOD	-11.0956
3%)	-11.0957
▁facilitates	-11.0957
▁82	-11.096
▁tryptophan	-11.096
▁confined	-11.0962
3/	-11.0963
▁retardation	-11.0966
▁EBV	-11.097
4;	-11.097
clinical	-11.0974
▁triglycerides	-11.0977
ult	-11.0979
phag	-11.098
▁Complete	-11.0983
aria	-11.0986
▁83	-11.0986
▁microbiota	-11.0986
▁bases	-11.0986
▁Local	-11.0987
▁anesthetic	-11.0988
▁admissions	-11.099
▁debate	-11.0991
▁compartments	-11.0991
▁phyto	-11.0996
myc	-11.0998
▁ch	-11.1002
int	-11.1003
▁venom	-11.1005
▁scar	-11.1006
▁Rats	-11.1007
clo	-11.1012
▁Large	-11.1012
▁cryo	-11.1013
LDL	-11.1013
▁Screening	-11.1019
ylation	-11.102
▁catalase	-11.1022
nia	-11.1022
▁tongue	-11.1025
▁modelling	-11.1026
che	-11.1028
cadherin	-11.1029
▁solubility	-11.1029
▁competence	-11.1031
▁irregular	-11.1033
▁DL	-11.1034
▁primers	-11.1036
OL	-11.1037
ically	-11.1039
▁hazards	-11.104
NB	-11.104
▁And	-11.104
▁calcification	-11.104
▁minute	-11.1047
▁Lys	-11.1051
▁killing	-11.1054
▁zones	-11.1054
Met	-11.1061
▁1992	-11.1061
ern	-11.1062
▁Korean	-11.1062
▁uterus	-11.1064
▁acceptance	-11.1064
RB	-11.1064
▁phenyl	-11.1066
▁resected	-11.1067
▁alkyl	-11.1067
▁favor	-11.1068
▁glycerol	-11.1069
base	-11.107
▁office	-11.1074
▁subcellular	-11.1074
▁handling	-11.1076
▁boundary	-11.1081
▁vesicle	-11.1085
▁esters	-11.109
ala	-11.109
▁8%	-11.1092
▁Conclusion	-11.1092
▁Day	-11.1095
▁rescue	-11.1098
▁cover	-11.1099
▁seemed	-11.1102
▁programmes	-11.1102
▁emissions	-11.1103
▁mar	-11.1104
rit	-11.1105
▁Nursing	-11.1109
bin	-11.1109
▁(5-	-11.1111
▁plates	-11.1113
▁1993	-11.1115
▁SEM	-11.1117
GD	-11.1119
2.8	-11.1119
-[	-11.112
human	-11.1121
▁nausea	-11.1124
▁termed	-11.1129
▁demands	-11.1131
Si	-11.1136
▁spent	-11.1137
PB	-11.1138
▁univariate	-11.1139
▁causative	-11.1142
1.8	-11.1143
▁Hu	-11.1144
si	-11.1145
ides	-11.1148
▁Specifically	-11.1149
▁calves	-11.1157
catalyzed	-11.1158
▁named	-11.116
cur	-11.1162
oside	-11.1163
▁screw	-11.1165
▁autopsy	-11.1166
DT	-11.1168
▁amygdala	-11.117
GO	-11.1172
▁stone	-11.1177
alkyl	-11.118
▁twin	-11.1187
row	-11.1187
br	-11.1188
▁4)	-11.1193
▁CHD	-11.1199
lum	-11.12
▁sac	-11.1201
pine	-11.1205
▁Ho	-11.1212
▁neuroendocrine	-11.1214
▁scored	-11.1218
4/	-11.1219
▁classic	-11.1222
(2+)-	-11.1224
▁follicle	-11.1226
▁mutated	-11.1227
▁Survival	-11.1229
soluble	-11.1233
▁EA	-11.1235
▁curative	-11.1236
=0.01	-11.1236
▁Go	-11.1238
1.1	-11.1241
▁skull	-11.1242
▁110	-11.1243
▁motivation	-11.1247
▁deliver	-11.1252
▁mimic	-11.1253
comp	-11.1256
cu	-11.1257
▁angles	-11.1258
▁chemically	-11.1261
5%)	-11.1262
▁phenolic	-11.1263
▁killer	-11.1267
▁colonies	-11.1268
AMP	-11.1272
▁5.5	-11.1273
▁filaments	-11.1275
▁stresses	-11.1278
▁damaged	-11.1278
▁presumably	-11.1281
▁habits	-11.1293
▁travel	-11.1296
▁antidepressant	-11.1297
suppressive	-11.1298
▁PubMed	-11.1302
TO	-11.1308
▁endovascular	-11.131
▁LS	-11.1311
▁adenomas	-11.1315
▁progressively	-11.1316
▁plexus	-11.1318
FC	-11.132
▁lu	-11.1321
cholesterol	-11.1322
2.6	-11.1323
▁Public	-11.1324
▁2017	-11.1329
▁coated	-11.1329
▁lineages	-11.133
▁TM	-11.1331
functional	-11.1331
sided	-11.1332
▁monolayer	-11.1337
▁Fourier	-11.1337
▁exhibiting	-11.1339
▁switching	-11.1347
▁deformation	-11.135
▁uncertain	-11.1352
▁bioactive	-11.1354
▁vulnerable	-11.1358
Ac	-11.1359
za	-11.1362
ver	-11.1364
modified	-11.1365
ago	-11.1365
▁College	-11.1367
▁caffeine	-11.137
sch	-11.1372
▁3.7	-11.1377
▁0.01),	-11.1379
▁voluntary	-11.1381
▁seeking	-11.1382
▁Pr	-11.1385
▁Up	-11.1387
▁Southern	-11.1392
▁OH	-11.1393
▁Endo	-11.1398
▁Regulation	-11.1399
▁interviewed	-11.14
▁planned	-11.1402
▁Os	-11.1405
graphic	-11.1406
EV	-11.1408
▁ever	-11.141
▁guided	-11.1413
▁FM	-11.1414
▁intended	-11.1417
▁88	-11.142
▁hypotension	-11.142
▁conflict	-11.1422
nate	-11.1425
▁Follow	-11.1425
+)	-11.1426
▁0.07	-11.1426
▁axon	-11.1426
▁pen	-11.1427
▁articular	-11.1428
▁formal	-11.1429
▁positivity	-11.1429
▁ME	-11.1435
▁autoantibodies	-11.1435
mar	-11.144
▁81	-11.1441
▁began	-11.1441
▁wet	-11.1444
▁BALB	-11.1444
▁spite	-11.1444
▁recessive	-11.1445
AV	-11.1445
▁MK	-11.1447
▁Severe	-11.1448
▁enamel	-11.1449
▁California	-11.1451
▁:	-11.1452
▁yellow	-11.1456
CRP	-11.1459
▁afferent	-11.1459
motor	-11.146
▁overlapping	-11.1461
HCV	-11.1461
Glu	-11.1463
▁differs	-11.1465
▁Normal	-11.147
▁helix	-11.147
pathological	-11.147
lytic	-11.1475
▁expectations	-11.1475
▁consultation	-11.1478
tract	-11.1478
9),	-11.148
▁PB	-11.1481
▁wear	-11.1485
Ms	-11.1488
▁rh	-11.1489
▁Italy	-11.1494
▁connections	-11.1496
▁soybean	-11.1496
▁engineered	-11.1497
▁oxygenation	-11.1501
activation	-11.1504
▁Zealand	-11.1507
▁raw	-11.1508
▁loaded	-11.1511
▁le	-11.1512
▁TS	-11.1513
▁unexpected	-11.1513
▁Whereas	-11.1517
▁cationic	-11.1519
▁oscillations	-11.1519
▁heating	-11.1521
▁circuit	-11.1522
▁lympho	-11.1523
ators	-11.1524
▁trees	-11.1524
▁lavage	-11.1526
▁larval	-11.1526
▁shortening	-11.1531
▁stabilized	-11.1532
▁tea	-11.1533
▁differing	-11.1533
▁trafficking	-11.1535
/10	-11.1536
▁organizations	-11.1539
▁85%	-11.1539
MMP	-11.154
▁move	-11.1543
▁OC	-11.1546
▁Da	-11.1549
▁Vi	-11.155
▁DSM	-11.1551
▁developments	-11.1551
▁thio	-11.1552
▁mating	-11.1552
▁FL	-11.1555
▁inappropriate	-11.1557
▁falls	-11.1557
plasty	-11.156
▁identifies	-11.1563
▁sexually	-11.1565
▁Besides	-11.157
▁confocal	-11.157
erg	-11.1573
▁accessible	-11.1574
-24	-11.1574
cyclophosphamide	-11.1576
tous	-11.1577
▁incorporating	-11.1588
▁accounting	-11.1588
ibility	-11.159
pp	-11.1591
▁Special	-11.1592
rat	-11.1592
▁electrostatic	-11.1593
▁mapped	-11.1593
dol	-11.1596
sized	-11.1598
▁Background	-11.1598
▁swine	-11.1599
nt	-11.1601
▁lactation	-11.1601
▁box	-11.1606
▁ro	-11.1607
0%)	-11.1613
Zn	-11.1614
▁multidrug	-11.1616
▁1991	-11.162
▁Correlation	-11.162
▁SU	-11.1621
▁desired	-11.1621
Ch	-11.1622
▁popular	-11.1625
▁substituted	-11.1629
▁monkey	-11.163
▁hematoma	-11.163
▁lymphomas	-11.1631
▁binary	-11.1636
▁spherical	-11.1636
ART	-11.1637
▁disappeared	-11.1639
▁projection	-11.164
▁NPs	-11.1641
▁polymorphic	-11.1642
▁TiO	-11.1645
phenol	-11.1645
▁Po	-11.1648
▁600	-11.1649
UV	-11.165
▁ob	-11.1652
▁exo	-11.1655
▁categorized	-11.1656
square	-11.1656
2.7	-11.1658
▁Syndrome	-11.1658
▁lattice	-11.1659
atic	-11.1664
▁dissolved	-11.1665
▁asymmetry	-11.1666
▁parenteral	-11.1668
Arg	-11.1669
aceae	-11.1671
▁microtubule	-11.1672
tle	-11.1672
▁diagnose	-11.1674
▁owing	-11.1674
▁engagement	-11.1675
▁advance	-11.1676
▁Chemical	-11.1677
▁sedation	-11.1677
lig	-11.1678
▁discharged	-11.1678
▁Res	-11.1679
▁rodent	-11.1682
▁Electron	-11.1684
▁deletions	-11.1684
▁society	-11.1684
▁fibrous	-11.1684
▁Body	-11.169
graft	-11.169
▁firing	-11.169
ew	-11.1692
WS	-11.1693
activating	-11.1693
▁players	-11.1694
HV	-11.1696
med	-11.1696
▁mesh	-11.1697
▁Mice	-11.17
▁fell	-11.1703
▁Ras	-11.1708
▁Inventory	-11.1709
ound	-11.171
▁crossover	-11.1713
▁possibilities	-11.1716
▁kept	-11.1719
▁glucagon	-11.1725
▁summer	-11.1729
▁Laboratory	-11.1732
▁gyrus	-11.1732
▁endpoint	-11.1733
▁stents	-11.1733
▁app	-11.1734
chemotherapeutic	-11.1736
▁attacks	-11.1736
EE	-11.1736
▁border	-11.1739
▁house	-11.174
UT	-11.174
▁rigid	-11.1744
▁li	-11.1745
▁87	-11.1746
▁supplement	-11.1749
cept	-11.1749
▁individually	-11.1753
▁Fas	-11.1755
▁prosthetic	-11.1757
▁phenol	-11.1758
py	-11.1758
(50)	-11.176
▁MB	-11.1761
gp	-11.1762
▁lengths	-11.1762
▁relating	-11.1765
0).	-11.1766
▁Her	-11.1767
▁cations	-11.1772
▁Rho	-11.1773
▁inherent	-11.1776
▁Visual	-11.1778
GL	-11.1781
▁irreversible	-11.1783
▁augmentation	-11.1783
thrombocytopenia	-11.1786
▁interfere	-11.1786
▁quasi	-11.1788
▁BRCA	-11.1789
RN	-11.179
▁RS	-11.1791
▁Population	-11.1793
▁look	-11.1795
▁Gal	-11.1796
▁apolipoprotein	-11.1796
▁computerized	-11.1796
▁-2	-11.1799
▁collaboration	-11.1799
▁irrespective	-11.1799
▁branches	-11.18
▁managing	-11.18
▁theories	-11.18
4.0	-11.18
▁synapses	-11.1801
uch	-11.1801
otropic	-11.1803
▁mumol	-11.1805
Ph	-11.1806
▁fuel	-11.1811
▁gels	-11.1812
ou	-11.1813
▁Medicare	-11.1815
▁Eighty	-11.1816
▁inputs	-11.182
▁degenerative	-11.1822
▁publications	-11.1822
▁format	-11.1823
Mo	-11.1825
▁gallbladder	-11.1825
▁titanium	-11.1827
▁scenarios	-11.1829
▁EB	-11.1829
▁haplotype	-11.183
▁reasonable	-11.1831
▁burst	-11.1832
▁phospholipids	-11.1836
▁acceptor	-11.1837
▁receiver	-11.1838
inus	-11.1839
▁solar	-11.184
▁thermodynamic	-11.1841
▁locomotor	-11.1841
MSCs	-11.1844
▁CLINICAL	-11.1844
▁hydrophilic	-11.1844
▁rules	-11.1844
▁LE	-11.1845
▁averaged	-11.1845
▁add	-11.1845
▁counterparts	-11.185
▁experts	-11.185
▁gray	-11.185
rp	-11.1855
▁fused	-11.1856
▁3.8	-11.1857
▁interpret	-11.1857
▁Efficacy	-11.1858
▁walls	-11.186
▁telephone	-11.186
omy	-11.1861
▁viscosity	-11.1861
<0.001)	-11.1863
▁Experiment	-11.1868
▁front	-11.1868
mate	-11.1871
oxa	-11.1873
▁lowering	-11.1874
linking	-11.1876
▁conjugate	-11.1877
AIDS	-11.1878
ris	-11.1881
▁strongest	-11.1881
▁islets	-11.1883
▁detector	-11.1883
▁chickens	-11.1885
▁Helicobacter	-11.1886
ient	-11.1886
▁symmetry	-11.1887
▁circumstances	-11.189
▁typing	-11.1891
AK	-11.1891
▁Conclusions	-11.1891
TGF	-11.1892
ze	-11.1894
▁MV	-11.1895
ept	-11.1895
volume	-11.1896
dihydro	-11.1896
mode	-11.1896
pH	-11.1898
▁lean	-11.1899
▁89	-11.1901
▁suggestive	-11.1902
▁college	-11.1903
▁gradients	-11.1906
▁12%	-11.1907
▁stop	-11.1907
▁traffic	-11.1909
▁derive	-11.1909
▁Acid	-11.191
▁lectin	-11.1912
▁Aspergillus	-11.1912
▁7,	-11.1915
▁France	-11.1916
▁chitosan	-11.1916
▁oocyte	-11.1919
▁constitutive	-11.1919
▁Italian	-11.1919
(-1),	-11.1922
▁hydrochloride	-11.1922
▁dystrophy	-11.1925
▁catheterization	-11.1927
▁7%	-11.1928
ker	-11.1929
Di	-11.1931
▁nitro	-11.1933
▁discriminate	-11.1933
rb	-11.1934
▁monotherapy	-11.1939
▁allergen	-11.1939
1.0	-11.1941
▁Glu	-11.1942
▁quantities	-11.1945
ifying	-11.1945
▁salts	-11.1945
GG	-11.1946
strand	-11.1946
NG	-11.1948
▁Child	-11.1951
▁oncology	-11.1951
lateral	-11.1952
▁35%	-11.1952
▁folate	-11.1956
▁cochlear	-11.1958
▁matrices	-11.1958
▁000	-11.1959
▁pmol	-11.1961
cancer	-11.1961
▁imbalance	-11.1961
channel	-11.1962
▁cytosol	-11.1967
▁plasmids	-11.1968
▁eventually	-11.197
pur	-11.197
▁divergence	-11.1971
▁challenged	-11.1974
▁Standard	-11.1974
hy	-11.1974
▁neuroblastoma	-11.1975
▁pin	-11.1976
▁Asia	-11.1977
ida	-11.1979
infection	-11.1983
hydr	-11.1985
▁learned	-11.1985
▁catheters	-11.1986
▁defining	-11.1988
▁(24	-11.1989
▁employment	-11.199
VO	-11.1992
▁actively	-11.1993
itation	-11.1994
ographic	-11.1995
▁verify	-11.1996
▁chick	-11.1996
▁impairments	-11.1996
genetic	-11.1997
▁temporary	-11.1997
▁learn	-11.1998
▁meaning	-11.1999
▁reagents	-11.2
▁implement	-11.2
▁spring	-11.2001
▁Consistent	-11.2007
▁Family	-11.201
▁vertebrate	-11.2014
▁projections	-11.2014
pl	-11.2016
▁build	-11.2017
▁PTH	-11.2018
▁stretch	-11.2019
▁carefully	-11.202
intensity	-11.2024
HO	-11.2025
hole	-11.2026
▁pulsed	-11.2026
▁clean	-11.2027
▁mobilization	-11.2027
▁sexes	-11.2028
▁concentrated	-11.2028
case	-11.2028
▁segmental	-11.2028
▁Preliminary	-11.203
diol	-11.2034
BG	-11.2034
▁Community	-11.2034
▁citrate	-11.2034
▁Preoperative	-11.2034
▁papers	-11.2036
▁Stress	-11.2037
▁excited	-11.204
▁fail	-11.2043
▁rating	-11.2044
▁era	-11.2048
▁Positive	-11.2049
▁terminals	-11.205
▁innovative	-11.205
▁HeLa	-11.205
ians	-11.2051
mono	-11.2054
▁tumorigenesis	-11.2057
▁voice	-11.2057
▁DD	-11.2058
▁fibre	-11.2063
ble	-11.2064
version	-11.2074
▁SL	-11.2074
▁tunnel	-11.2076
▁downregulation	-11.2079
▁continuing	-11.208
▁Monte	-11.208
▁CCR	-11.208
▁sports	-11.2081
▁entero	-11.2081
▁silicon	-11.2085
▁adenovirus	-11.2087
▁nutrients	-11.2088
▁unlikely	-11.2089
▁0.08	-11.2089
enyl	-11.209
▁flu	-11.2091
▁registry	-11.2093
▁Then	-11.2095
-6,	-11.2095
▁chart	-11.2096
some	-11.2097
9;	-11.2098
eb	-11.2099
▁anal	-11.21
▁maize	-11.2107
▁aryl	-11.2109
▁perhaps	-11.211
▁4.2	-11.2111
▁Spanish	-11.2116
Gly	-11.2117
▁crystalline	-11.2118
▁Leu	-11.2121
▁my	-11.2122
articular	-11.2127
label	-11.2128
▁phantom	-11.2131
▁ethylene	-11.2132
▁oxy	-11.2137
ied	-11.2139
▁particulate	-11.214
▁radius	-11.214
▁guideline	-11.2143
▁perceptual	-11.2151
▁prompt	-11.2152
ei	-11.2153
▁responders	-11.2153
fr	-11.2154
▁York	-11.2156
▁executive	-11.2158
▁emotion	-11.2159
▁97	-11.216
eus	-11.2163
amin	-11.2163
▁TBI	-11.2165
▁Cost	-11.2166
▁filled	-11.2167
▁Web	-11.2168
▁deformity	-11.217
▁ste	-11.217
qua	-11.2174
▁themes	-11.2176
8;	-11.2179
ven	-11.218
▁moment	-11.2181
▁fabricated	-11.2183
culture	-11.2183
▁dB	-11.2184
▁landscape	-11.2186
▁collateral	-11.2186
▁impedance	-11.219
▁rod	-11.219
▁depolarization	-11.219
▁pocket	-11.2191
▁stationary	-11.2194
▁micromol	-11.2194
glyc	-11.2196
▁detachment	-11.2196
LL	-11.2197
ust	-11.2197
▁menstrual	-11.22
Group	-11.2201
▁minority	-11.2203
effect	-11.2206
pic	-11.2207
LPS	-11.2208
▁brainstem	-11.2208
ved	-11.221
▁inhaled	-11.221
▁End	-11.2211
▁Design	-11.2217
▁reserve	-11.2218
▁organized	-11.2219
▁[(	-11.2219
▁remarkably	-11.222
▁wrist	-11.222
▁fractional	-11.222
▁dead	-11.2221
(5)	-11.2223
2.3	-11.2224
▁grain	-11.2229
5.5	-11.2232
FL	-11.2234
valent	-11.2235
▁endometriosis	-11.2237
▁hierarchical	-11.2237
hen	-11.224
▁put	-11.224
ek	-11.2241
▁vibration	-11.2242
▁colour	-11.2242
▁Network	-11.2243
▁accounts	-11.2243
▁Trial	-11.2246
▁Water	-11.2248
▁em	-11.2249
▁preoperatively	-11.2249
▁stream	-11.2249
▁meaningful	-11.2253
ACE	-11.2255
▁walk	-11.2256
0°	-11.2257
▁ASD	-11.2259
▁SUMMARY	-11.226
ulo	-11.2261
▁indicative	-11.2264
▁dentin	-11.2264
▁written	-11.2266
▁adolescence	-11.2267
▁thiol	-11.2274
▁chemokine	-11.2276
▁paclitaxel	-11.2277
vol	-11.2277
▁Notch	-11.2278
▁Mental	-11.2279
ERK	-11.228
▁Currently	-11.228
▁4.1	-11.228
▁salvage	-11.2281
face	-11.2281
▁94	-11.2284
rol	-11.2285
▁addressing	-11.2285
▁Sequence	-11.2287
▁immunized	-11.2287
MIC	-11.2291
▁painful	-11.2294
▁Su	-11.2294
ort	-11.2296
▁floor	-11.2297
flu	-11.2298
▁agricultural	-11.2301
▁cone	-11.2303
▁cor	-11.2306
▁behind	-11.2308
▁electrophoretic	-11.2308
▁entered	-11.2311
▁Vitamin	-11.2312
▁lymphocytic	-11.2312
keto	-11.2312
&	-11.2313
▁ti	-11.2314
prop	-11.2318
▁arms	-11.232
▁98	-11.232
▁natriuretic	-11.2321
PLA	-11.2321
topic	-11.2328
▁hydroxy	-11.2328
reperfusion	-11.2329
translational	-11.2331
cit	-11.2334
▁applicability	-11.2335
▁intrauterine	-11.2335
▁thick	-11.2337
born	-11.2338
▁institutional	-11.2342
-40	-11.2346
▁humoral	-11.2346
▁Measurement	-11.2348
▁preceding	-11.2352
-/-	-11.2355
system	-11.2355
▁Maternal	-11.2355
rk	-11.2355
▁effusion	-11.2358
▁expenditure	-11.2359
-2)	-11.2359
▁BD	-11.236
▁taste	-11.236
▁summarizes	-11.2364
▁Outcome	-11.2365
▁Im	-11.2366
▁anesthetized	-11.2367
▁East	-11.2367
▁enabling	-11.2369
▁weakness	-11.2369
▁hemisphere	-11.237
precipitation	-11.2371
▁bilirubin	-11.2374
2.2	-11.2374
app	-11.2377
types	-11.2377
▁keratinocytes	-11.2377
▁conductivity	-11.2378
oplasty	-11.2378
linear	-11.2379
▁forearm	-11.2383
pal	-11.2387
▁brown	-11.2389
▁killed	-11.2389
▁simplex	-11.239
▁bromide	-11.239
▁psychosis	-11.239
▁adequately	-11.2392
ima	-11.2392
▁senescence	-11.2396
▁cur	-11.2399
▁doctor	-11.2399
4%)	-11.2401
▁relate	-11.2402
▁lysis	-11.2403
▁alters	-11.2404
▁gaps	-11.2405
▁nov	-11.2405
pig	-11.2407
▁Internet	-11.2408
▁penta	-11.241
▁deposits	-11.2412
atum	-11.2413
▁lysosomal	-11.2414
8%)	-11.2415
▁immunoreactive	-11.2417
▁6.5	-11.2418
▁pacemaker	-11.242
▁suppresses	-11.2424
▁multivariable	-11.2428
▁(40	-11.243
EX	-11.2432
▁atopic	-11.2432
yo	-11.2432
▁Peri	-11.2433
7.5%	-11.2433
neu	-11.2435
▁sufficiently	-11.2437
▁vasopressin	-11.244
▁hygiene	-11.2441
▁fungus	-11.2441
▁cytoskeleton	-11.2441
▁biomechanical	-11.2441
▁boy	-11.2441
▁~	-11.2443
▁mixing	-11.2443
▁Xenopus	-11.2447
▁osmotic	-11.2449
graph	-11.2449
cus	-11.2452
▁blast	-11.2454
▁130	-11.2454
▁immunoassay	-11.2456
SB	-11.2458
▁cytogenetic	-11.2461
▁140	-11.2463
▁Col	-11.2464
hazard	-11.2467
▁illustrated	-11.2468
INE	-11.2472
▁dissolution	-11.2472
▁subtilis	-11.2472
▁Down	-11.2475
▁decomposition	-11.2475
▁cerebrovascular	-11.2475
▁Cy	-11.2477
pair	-11.2478
▁Isolation	-11.2479
▁publication	-11.2481
▁0%	-11.2482
▁arrangement	-11.2482
▁segmentation	-11.2483
▁pivotal	-11.2487
▁ether	-11.2487
UD	-11.2488
▁Hsp	-11.2488
AUC	-11.249
▁graded	-11.2494
▁Golgi	-11.2498
▁GS	-11.2501
▁accomplished	-11.2502
▁nodal	-11.2502
▁atmospheric	-11.2503
▁reconstructed	-11.2503
▁pyruvate	-11.2505
gated	-11.2505
▁uro	-11.251
▁AN	-11.251
▁cutoff	-11.2513
▁clinician	-11.2513
▁Taiwan	-11.2513
▁weakly	-11.2513
10)	-11.2514
phys	-11.2518
▁luminal	-11.2518
▁designs	-11.2519
▁About	-11.252
▁hope	-11.2523
ding	-11.2524
▁MIC	-11.2525
▁GST	-11.2526
▁amputation	-11.253
▁serves	-11.2531
benzene	-11.2533
▁displays	-11.2538
▁aquatic	-11.2541
▁92	-11.2541
serine	-11.2544
HE	-11.2545
▁retrieved	-11.2546
▁Method	-11.2549
▁assumption	-11.2551
▁regurgitation	-11.2551
▁threat	-11.2551
ces	-11.2553
right	-11.2555
▁.001).	-11.2556
6;	-11.2557
▁spot	-11.2557
▁diagnosing	-11.2558
▁My	-11.2561
▁interfering	-11.2562
cut	-11.2568
▁protects	-11.2575
▁Alcohol	-11.2575
▁semen	-11.2577
▁stones	-11.2577
▁initiate	-11.2577
▁coordinated	-11.258
▁Interview	-11.2583
▁nanoparticle	-11.2585
▁degraded	-11.259
▁planar	-11.2591
subunit	-11.2592
arm	-11.2593
▁DP	-11.2595
▁solvents	-11.2596
▁corticosteroid	-11.2598
▁PN	-11.2599
▁proteases	-11.2602
▁disabilities	-11.2604
▁digestive	-11.2605
▁Knowledge	-11.2607
ory	-11.2609
ECs	-11.261
molecule	-11.2613
▁Safety	-11.2614
<0.01).	-11.2615
▁selenium	-11.2617
▁stool	-11.2617
-25	-11.2618
EG	-11.2618
▁granule	-11.2619
▁surveyed	-11.262
▁microsatellite	-11.2621
▁Infection	-11.2623
▁medicinal	-11.2624
ai	-11.2629
▁Initial	-11.2632
sum	-11.2632
aryl	-11.2632
ons	-11.2635
▁cesarean	-11.2638
xi	-11.2639
▁flaps	-11.2639
▁ulcerative	-11.264
4.3%	-11.264
▁corpus	-11.2642
lan	-11.2642
▁track	-11.2644
▁aberrations	-11.2644
▁eliminate	-11.2644
▁cervix	-11.2649
▁briefly	-11.2649
▁Em	-11.2649
▁lag	-11.2651
▁Spain	-11.2652
axial	-11.2654
▁reform	-11.2655
▁Ce	-11.2656
▁encephalopathy	-11.2656
▁Americans	-11.2658
▁get	-11.2658
VR	-11.2658
▁escape	-11.266
grams	-11.2663
▁multiplex	-11.2663
▁microgram	-11.2665
organ	-11.2665
▁wood	-11.2672
▁FOR	-11.2673
▁priming	-11.2673
▁Epi	-11.2674
▁breakdown	-11.2677
7%)	-11.268
▁MF	-11.2681
▁intron	-11.2681
▁Black	-11.2682
aldehyde	-11.2682
metal	-11.2686
minotransferase	-11.2686
▁exceeded	-11.2688
▁$	-11.2689
Δ	-11.2694
olytic	-11.2694
▁convenient	-11.2694
▁positioning	-11.2695
▁prescribing	-11.2695
▁bridge	-11.2696
▁aldosterone	-11.2696
▁SPECT	-11.2699
▁ascites	-11.2702
▁departments	-11.2703
rank	-11.2703
▁intensities	-11.2705
cation	-11.2707
▁Vascular	-11.2709
▁IBD	-11.2709
▁serological	-11.2715
▁conscious	-11.2715
IB	-11.2715
ori	-11.2718
0.1	-11.2721
▁pretreated	-11.2721
▁Coronary	-11.2723
▁indomethacin	-11.2723
▁Systematic	-11.2726
▁Act	-11.2727
▁noradrenaline	-11.2729
▁substitutions	-11.2729
▁datasets	-11.2731
+/	-11.2732
arterial	-11.2736
3.8%	-11.2736
press	-11.2736
▁Ar	-11.2741
▁glutamine	-11.2742
peri	-11.2743
▁acceleration	-11.2744
▁patent	-11.2744
2]	-11.2745
▁Experiments	-11.2745
▁proteinuria	-11.2746
ich	-11.2748
▁Comp	-11.2748
▁accessory	-11.2748
host	-11.275
▁13%	-11.275
SOD	-11.2751
FM	-11.2752
▁lipoproteins	-11.2753
▁propensity	-11.2754
▁endothelin	-11.2758
pass	-11.276
▁standing	-11.2765
KO	-11.2767
▁clamp	-11.2768
class	-11.2769
ke	-11.277
ral	-11.2771
str	-11.2774
▁covering	-11.2774
▁habitat	-11.2778
▁SCC	-11.278
uit	-11.2781
▁93	-11.2787
SEM	-11.2788
ote	-11.2791
▁road	-11.2791
electron	-11.2792
▁Genome	-11.2794
▁sole	-11.2794
▁thrombus	-11.2794
▁radioactive	-11.2795
▁prone	-11.2796
rous	-11.2796
▁achievement	-11.2796
▁Syn	-11.2798
▁spike	-11.2803
▁rearrangement	-11.2805
ture	-11.2807
▁vulnerability	-11.2808
▁come	-11.2809
▁game	-11.2811
▁behaviours	-11.2813
://	-11.2816
-23	-11.2818
▁surrogate	-11.2818
▁photon	-11.2819
▁quickly	-11.282
▁postsynaptic	-11.2821
▁School	-11.2822
▁(0.0	-11.2823
▁supportive	-11.2827
ough	-11.2827
▁CN	-11.2828
▁chronically	-11.2828
▁compact	-11.2828
▁faces	-11.283
▁Performance	-11.2836
2.9	-11.2837
▁provider	-11.2837
Th	-11.2838
▁Successful	-11.2841
▁1:	-11.2841
DL	-11.2843
▁nitrite	-11.2844
eal	-11.2845
▁confirms	-11.2847
▁cooling	-11.2849
ature	-11.2851
▁Science	-11.2852
ack	-11.2852
▁na	-11.2853
section	-11.2858
structured	-11.286
▁u	-11.2863
fa	-11.2866
▁IOP	-11.2866
▁ineffective	-11.2866
▁Few	-11.2867
neuro	-11.2867
av	-11.2869
▁Stage	-11.2869
▁Improvement	-11.2869
FE	-11.2873
▁cuff	-11.2876
▁SCI	-11.2876
▁methotrexate	-11.2877
▁electrolyte	-11.2878
▁creating	-11.2883
▁confirming	-11.2886
▁Met	-11.2887
▁Levels	-11.2889
▁SUBJECTS	-11.2894
▁reagent	-11.2896
▁package	-11.2898
▁3.9	-11.29
▁discontinuation	-11.2901
▁Sh	-11.2901
LO	-11.2902
▁disrupt	-11.2902
▁juice	-11.2904
▁allocated	-11.2905
▁CTL	-11.291
▁puncture	-11.2912
▁blocker	-11.2912
▁overexpressed	-11.2913
angle	-11.2914
ule	-11.2914
▁transgene	-11.2915
▁reflection	-11.2916
ases	-11.2923
work	-11.2923
▁restore	-11.2925
▁MEASUREMENTS	-11.2926
▁neuroprotective	-11.2927
RL	-11.2931
ging	-11.2932
▁echocardiograph	-11.2932
▁topic	-11.2935
▁platinum	-11.2936
▁Cognitive	-11.2937
para	-11.2937
▁heterologous	-11.294
income	-11.294
▁Cardiovascular	-11.2944
viral	-11.2945
▁angio	-11.2946
3.2	-11.2948
▁bones	-11.2949
▁160	-11.2951
▁propofol	-11.2955
▁weighted	-11.2956
wise	-11.2958
▁pathologies	-11.2959
▁accordance	-11.2959
▁polyclonal	-11.2959
▁distinctive	-11.2959
3.8	-11.296
az	-11.2961
▁Before	-11.2962
▁Eleven	-11.2962
▁lipo	-11.2967
▁Or	-11.2968
▁virtually	-11.2974
IG	-11.2976
▁sequelae	-11.298
▁AV	-11.2981
4.4	-11.2983
▁calf	-11.2983
▁IT	-11.2985
▁morning	-11.2991
▁check	-11.2993
▁inconsistent	-11.2993
uric	-11.2994
2.5%	-11.2997
▁comorbidity	-11.2997
second	-11.2998
▁compensation	-11.2998
▁absorbed	-11.3
▁military	-11.3002
▁polysaccharide	-11.3005
▁musculoskeletal	-11.3006
▁inversion	-11.3006
▁transcriptase	-11.3007
▁positron	-11.3013
lation	-11.3016
▁dataset	-11.3016
acetic	-11.3019
▁kcal	-11.302
▁tubes	-11.3021
sorb	-11.3023
ultidisciplinary	-11.3025
▁semantic	-11.3026
etalloproteinase	-11.3027
▁cl	-11.3028
▁microsomal	-11.3029
center	-11.3031
pent	-11.3033
▁intercellular	-11.3033
▁Individual	-11.3033
▁away	-11.3037
5.7%	-11.3038
▁exerts	-11.3039
▁conjugates	-11.304
▁adipocytes	-11.304
▁choline	-11.3042
sta	-11.3048
▁consequently	-11.305
▁breastfeeding	-11.3051
▁tear	-11.3052
▁links	-11.3056
▁characterised	-11.3059
▁labelled	-11.306
▁sheath	-11.306
▁warm	-11.3061
▁herein	-11.3063
▁polyps	-11.3063
▁somatostatin	-11.3064
LN	-11.3065
traumatic	-11.3065
ms	-11.3065
▁adapt	-11.307
▁rodents	-11.3071
▁abdomen	-11.3071
▁toxins	-11.3072
6.5	-11.3073
ocyte	-11.3073
gu	-11.3073
▁soon	-11.3076
▁Cys	-11.3078
omas	-11.308
PEG	-11.3083
▁concerned	-11.3083
▁disseminated	-11.3083
TN	-11.3085
▁PMN	-11.3085
DO	-11.3087
▁reacted	-11.309
▁dilated	-11.3091
val	-11.3092
RO	-11.3092
▁3'-	-11.3092
ural	-11.3094
▁claims	-11.3095
ola	-11.3097
▁Major	-11.3099
▁participant	-11.31
▁addiction	-11.3101
▁shed	-11.3101
both	-11.3102
▁ICD	-11.3102
▁England	-11.3104
▁caudal	-11.3106
▁crop	-11.3106
▁Bayesian	-11.3108
▁NAD	-11.3109
▁sec	-11.3109
▁bundle	-11.3111
sec	-11.3117
▁patency	-11.3123
▁repression	-11.3123
1.2	-11.3126
▁hepatocyte	-11.3126
▁MEDLINE	-11.3126
olin	-11.3127
▁FS	-11.3129
▁Sleep	-11.313
▁geographical	-11.313
3.6	-11.3132
ros	-11.3132
transplant	-11.3133
targeted	-11.3134
ably	-11.3134
▁Unlike	-11.3136
ock	-11.3136
▁Eu	-11.3138
▁rationale	-11.3141
▁Mono	-11.3144
▁differently	-11.3144
▁SW	-11.3147
▁sensation	-11.3148
▁11%	-11.3149
▁carboxyl	-11.3149
▁Bu	-11.3151
▁immobilization	-11.3152
▁thereafter	-11.3154
▁Addition	-11.3157
▁myocytes	-11.3158
▁encephalitis	-11.3159
▁mind	-11.3159
▁alcoholic	-11.316
▁backbone	-11.316
▁margins	-11.3163
minute	-11.3165
▁Pan	-11.3166
▁dimethyl	-11.3166
▁reliably	-11.3167
▁antisense	-11.3167
▁Relationship	-11.3167
▁sharp	-11.3168
▁Clinic	-11.3168
▁omega	-11.3169
+/-1	-11.3169
mid	-11.3171
VEGF	-11.3172
▁confirmation	-11.3173
▁vapor	-11.3173
tel	-11.3174
▁Mortality	-11.3174
adrenoceptor	-11.3174
▁Database	-11.3175
▁sector	-11.3178
▁emphasize	-11.3178
▁investigators	-11.3179
▁scintigraphy	-11.318
▁item	-11.3184
▁farm	-11.3184
▁epinephrine	-11.3185
▁Emergency	-11.3185
▁Selective	-11.3185
▁geometric	-11.3187
▁coil	-11.3195
▁notion	-11.3195
▁CFU	-11.3195
▁Binding	-11.3196
renal	-11.3198
▁exploratory	-11.32
▁Kaplan	-11.32
post	-11.3201
▁microglia	-11.3205
▁Another	-11.3206
▁striatal	-11.3206
▁built	-11.321
▁glioblastoma	-11.3211
benzyl	-11.3213
gl	-11.3214
ena	-11.3215
▁spray	-11.3216
radi	-11.3222
▁exerted	-11.3224
▁transcribed	-11.3225
▁sphincter	-11.3226
diabetic	-11.3226
▁lambda	-11.3227
▁shifted	-11.3228
tho	-11.3231
▁effluent	-11.3233
▁Surface	-11.3233
▁nude	-11.3235
back	-11.3237
▁pollutants	-11.3237
▁Mutations	-11.3238
▁striking	-11.3238
4.4%	-11.3239
▁MDR	-11.3241
col	-11.3242
▁replace	-11.3242
▁Brazilian	-11.3243
▁kerato	-11.3243
total	-11.3246
ari	-11.3246
▁safely	-11.3248
▁scaling	-11.3248
▁seconds	-11.3249
▁prop	-11.3252
▁Ninety	-11.3256
▁Korea	-11.3257
▁Little	-11.3259
▁leukaemia	-11.3259
▁drivers	-11.326
▁attitude	-11.326
efficacy	-11.326
▁Carlo	-11.326
▁opinion	-11.3264
▁blockers	-11.3266
▁elegans	-11.3267
▁faculty	-11.3267
▁microsomes	-11.3268
VD	-11.3268
Meier	-11.3269
ux	-11.327
▁SHR	-11.3271
▁mAb	-11.3272
▁acupuncture	-11.3273
2.9%	-11.3274
3.4	-11.3277
▁GO	-11.3278
▁tracer	-11.3279
▁Fifteen	-11.3282
▁profession	-11.3282
▁primer	-11.3283
▁Val	-11.3284
▁4.3	-11.3285
▁adiponectin	-11.3286
▁creatine	-11.3286
5.6%	-11.3288
▁orthodontic	-11.3289
4.8	-11.329
mia	-11.3291
▁ductal	-11.3293
▁neoplasm	-11.3296
▁4.6	-11.3296
▁sal	-11.3297
▁mask	-11.3298
▁train	-11.33
▁palate	-11.3301
▁malformation	-11.3302
▁CRF	-11.3303
BO	-11.3307
▁Real	-11.3308
1.4%	-11.3309
▁definite	-11.3311
▁clock	-11.3311
▁facilitating	-11.3312
protective	-11.3315
▁helical	-11.3316
ended	-11.3318
VP	-11.3319
3.6%	-11.3319
▁Radio	-11.332
▁regime	-11.3322
▁nail	-11.3322
LY	-11.3323
▁ice	-11.3325
ili	-11.3326
▁assistance	-11.3328
▁encode	-11.3329
ani	-11.333
▁airways	-11.3332
-1.0	-11.3333
▁stratification	-11.3334
▁contrary	-11.3334
▁radioactivity	-11.3339
ELISA	-11.3339
▁progenitors	-11.334
7;	-11.3341
▁capabilities	-11.3342
▁Ge	-11.3344
gon	-11.3345
tens	-11.3345
▁sediments	-11.3346
tissue	-11.3347
standing	-11.3347
-67	-11.335
0.4	-11.3356
ski	-11.3357
len	-11.3357
ee	-11.3357
▁enlargement	-11.3361
▁crisis	-11.3361
▁girl	-11.3362
▁intention	-11.3364
▁hyperglycemia	-11.3364
ren	-11.3365
▁granular	-11.3366
▁9-	-11.337
iform	-11.337
▁hypothermia	-11.3372
▁cue	-11.3372
▁monomer	-11.3375
insulin	-11.3376
3.7	-11.3377
2+-	-11.3378
▁outbreaks	-11.3382
▁hysterectomy	-11.3383
▁extinction	-11.3383
▁decompression	-11.3384
American	-11.3385
▁origins	-11.3385
▁axillary	-11.3388
limiting	-11.339
▁refractive	-11.3391
▁sent	-11.3392
▁iliac	-11.3394
spect	-11.3397
reactivity	-11.3398
▁PRL	-11.3399
▁thrombo	-11.3399
▁stroma	-11.34
▁PRO	-11.3401
▁fifth	-11.3402
▁prepare	-11.3403
6.7	-11.3403
dynamic	-11.3405
▁routes	-11.3406
▁harvested	-11.3406
▁DH	-11.3408
▁flight	-11.3411
▁lamina	-11.3411
▁downregulated	-11.3411
▁differentiating	-11.3413
▁105	-11.3415
▁bilayer	-11.3415
▁lenses	-11.3417
▁Project	-11.3418
▁allocation	-11.3418
▁polypeptides	-11.342
▁Iso	-11.342
▁microwave	-11.3421
▁Incidence	-11.3421
▁encourage	-11.3422
▁taxa	-11.3422
▁cosmetic	-11.3429
▁LN	-11.3431
▁AL	-11.3432
▁microspheres	-11.3433
▁Ga	-11.3435
▁contour	-11.3436
▁Metabolic	-11.344
▁18-	-11.3441
▁dissemination	-11.3444
▁ordered	-11.3445
▁HI	-11.3446
▁accident	-11.3447
▁myelo	-11.345
4.7	-11.3451
▁Implications	-11.3451
▁broncho	-11.3452
▁specialist	-11.3454
▁frog	-11.3456
▁morphologic	-11.3456
▁tablets	-11.3457
▁avoided	-11.3458
▁Netherlands	-11.3459
6.0	-11.3461
▁DCs	-11.3462
▁fire	-11.3463
▁cup	-11.3463
▁loads	-11.3463
▁proteasome	-11.3464
nal	-11.3465
▁actually	-11.3467
▁fly	-11.3468
▁Registry	-11.347
item	-11.3471
▁glycoproteins	-11.3472
hal	-11.3473
▁couples	-11.3475
▁ferritin	-11.3475
▁Inc	-11.3476
▁indirectly	-11.3476
▁1988	-11.3477
▁14%	-11.3478
=0.04	-11.3478
loss	-11.3482
▁disrupted	-11.3482
▁confounding	-11.3484
▁district	-11.3485
▁births	-11.3486
▁IA	-11.3488
ester	-11.349
lat	-11.3494
▁arteriovenous	-11.3497
1.9	-11.3498
▁jaw	-11.3498
▁catalyzed	-11.3499
hand	-11.3499
2%)	-11.3499
▁collect	-11.35
▁pay	-11.3504
▁EMG	-11.3506
▁saturated	-11.3506
thal	-11.3507
LU	-11.3508
UL	-11.351
-0.1	-11.3511
ade	-11.3513
▁hands	-11.3515
▁1989	-11.3515
▁contraceptive	-11.3515
▁normotensive	-11.3516
▁percentile	-11.3516
▁outflow	-11.3518
8.5	-11.3518
▁curriculum	-11.352
▁Flow	-11.3523
▁exons	-11.3524
▁Urinary	-11.3524
ld	-11.3525
▁MSCs	-11.3526
▁18%	-11.3527
▁ascending	-11.3528
▁break	-11.3528
▁employ	-11.3529
approximately	-11.3529
▁BDNF	-11.3533
▁Free	-11.3537
▁immunosuppress	-11.354
ICU	-11.354
5.6	-11.3541
neurotransmitter	-11.3542
▁vaccinated	-11.3542
▁truncated	-11.3543
ometer	-11.3544
▁17%	-11.3545
▁Practice	-11.3547
▁elbow	-11.3547
▁MN	-11.3549
▁gingival	-11.355
▁successive	-11.3553
▁0.99	-11.3554
run	-11.3555
▁serotype	-11.3556
particle	-11.3556
▁demographics	-11.3556
polymer	-11.3562
▁7.0	-11.3562
▁detergent	-11.3562
▁chimeric	-11.3562
▁urgent	-11.3563
▁MRSA	-11.3566
▁contemporary	-11.3566
▁percentages	-11.3567
ocytes	-11.3569
▁tubules	-11.3569
loop	-11.3571
▁CEA	-11.3572
▁match	-11.3573
▁Whether	-11.3574
SN	-11.3576
▁endpoints	-11.3577
air	-11.358
▁altering	-11.358
oxidation	-11.3582
▁tilt	-11.3582
lim	-11.3585
▁experiencing	-11.3585
mus	-11.359
▁Histological	-11.3593
▁audit	-11.3594
▁Caucasian	-11.3595
▁JNK	-11.3595
gar	-11.3596
til	-11.3597
▁agreed	-11.36
derm	-11.3602
0),	-11.3602
▁rotational	-11.3602
2.6%	-11.3603
▁collapse	-11.3605
▁advice	-11.3605
▁adsorbed	-11.3606
6.5%	-11.3606
2.7%	-11.3607
▁gradual	-11.361
feeding	-11.361
▁River	-11.3611
FDG	-11.3611
azole	-11.3611
ean	-11.3612
ple	-11.3613
▁91	-11.3613
▁(0.2	-11.3619
▁extremities	-11.362
▁borderline	-11.3621
▁antioxidants	-11.3623
▁Mass	-11.3623
pod	-11.3624
▁originally	-11.3625
▁vena	-11.3626
▁aggression	-11.3628
▁Congenital	-11.3628
▁nickel	-11.3628
▁overload	-11.3629
▁tropical	-11.363
▁epidermis	-11.3632
▁approximation	-11.3632
▁scope	-11.3635
pol	-11.3635
▁distortion	-11.3636
▁el	-11.3637
ight	-11.3637
▁Does	-11.3637
fin	-11.3638
▁chondrocytes	-11.3639
▁Clostridium	-11.3639
▁raise	-11.364
enol	-11.3643
▁incremental	-11.3644
▁intravascular	-11.3646
MN	-11.3646
▁posture	-11.3649
▁camera	-11.3649
pyridine	-11.3649
▁neutralizing	-11.365
▁duplication	-11.3651
▁granulocyte	-11.3651
stimulation	-11.3654
vir	-11.3655
5;	-11.3656
▁clients	-11.3656
▁endocarditis	-11.3659
▁medulla	-11.3662
▁Accordingly	-11.3662
▁ne	-11.3667
▁somewhat	-11.3667
▁priority	-11.3669
▁rearrangements	-11.367
▁Spontaneous	-11.367
▁pesticides	-11.3671
▁supplements	-11.3673
only	-11.3673
chlor	-11.3673
radioimmunoassay	-11.3674
cho	-11.3675
alk	-11.3676
HDL	-11.3677
▁infused	-11.3677
9%)	-11.3678
Ala	-11.3681
▁cr	-11.3681
▁phagocytosis	-11.3682
9.5	-11.3682
▁Measurements	-11.3682
rn	-11.3684
▁summarized	-11.3684
▁pedicle	-11.3686
▁eradication	-11.3686
▁polarity	-11.3686
crystal	-11.3686
▁diameters	-11.3687
▁33%	-11.3687
▁6.0	-11.3689
▁Approximately	-11.369
▁0.15	-11.3692
han	-11.3692
aging	-11.3692
▁beads	-11.3692
▁efficacious	-11.3694
▁mandible	-11.3694
▁pharmacy	-11.3694
▁tolerability	-11.3694
▁(0.3	-11.3694
▁machinery	-11.3694
8.6%	-11.3694
ser	-11.3699
▁FR	-11.3701
▁synthesize	-11.3702
nus	-11.3705
(2)-	-11.3707
▁tele	-11.3712
acyl	-11.3713
▁pull	-11.3718
▁dilation	-11.3718
▁helper	-11.3721
▁GTP	-11.3722
TION	-11.3722
ido	-11.3724
wi	-11.3724
▁potentiation	-11.3725
alis	-11.3729
▁racial	-11.3733
=4	-11.3733
▁transplants	-11.3735
▁mentioned	-11.3735
Ni	-11.3737
▁ter	-11.3737
▁cer	-11.3737
dwelling	-11.3739
8.3%	-11.3742
▁amine	-11.3746
▁CON	-11.3747
Phe	-11.3747
▁spots	-11.3756
▁extending	-11.3758
phosphorylation	-11.376
▁(5)	-11.3762
▁4.4	-11.3768
▁bu	-11.3768
▁monthly	-11.3769
0-	-11.377
▁9%	-11.3771
▁fractionation	-11.3771
inducible	-11.3772
▁Possible	-11.3772
8.5%	-11.3772
▁answer	-11.3774
OG	-11.3775
BV	-11.3775
unc	-11.3776
▁simulate	-11.3776
lay	-11.3777
▁anticoagulant	-11.3778
▁spatially	-11.3778
limited	-11.3784
ale	-11.3785
▁deviations	-11.3785
▁adducts	-11.3787
▁Dietary	-11.3788
▁Sweden	-11.3791
toxicity	-11.3792
▁Lower	-11.3792
▁q	-11.3794
4.9	-11.3796
▁trade	-11.3798
peak	-11.3799
▁polymeric	-11.38
▁breaks	-11.3802
▁viewed	-11.3802
▁DO	-11.3803
▁adopt	-11.3803
cle	-11.3807
@	-11.3807
▁Are	-11.3808
ami	-11.3813
▁felt	-11.3815
▁interactive	-11.3817
▁gall	-11.3819
▁Committee	-11.3823
▁amide	-11.3823
7.1%	-11.3824
▁revealing	-11.3824
▁CG	-11.3825
▁apart	-11.3826
▁read	-11.3826
▁papillomavirus	-11.3827
▁imply	-11.3831
▁brought	-11.3831
▁manifest	-11.3834
▁vast	-11.3841
▁codes	-11.3842
lect	-11.3842
▁proximity	-11.3843
▁dengue	-11.3843
▁genotyping	-11.3847
▁waist	-11.3847
1.5%	-11.3847
OB	-11.3848
▁judged	-11.3849
▁resolve	-11.3849
olysis	-11.385
▁visualized	-11.3851
ham	-11.3853
▁operational	-11.3854
▁warfarin	-11.3856
▁compromised	-11.3857
▁OCT	-11.3858
▁AG	-11.386
▁horn	-11.386
▁Sensitivity	-11.3862
▁vancomycin	-11.3862
▁generic	-11.3864
▁haplotypes	-11.3864
HPLC	-11.3865
%)	-11.3865
▁Tra	-11.3866
▁Left	-11.3867
▁plateau	-11.3869
▁propranolol	-11.3869
intervention	-11.387
matic	-11.387
surface	-11.3876
resistance	-11.3877
5.5%	-11.3881
▁fr	-11.3882
▁donation	-11.3883
▁0.09	-11.3886
▁Reduction	-11.3887
▁Education	-11.3887
anol	-11.3889
▁unlike	-11.3892
▁accumulate	-11.3894
▁triggers	-11.3896
lactamase	-11.3898
▁Er	-11.3898
▁10(6)	-11.3898
▁forensic	-11.3898
phi	-11.3899
▁Tyr	-11.39
▁methionine	-11.3902
tain	-11.3903
▁workplace	-11.3904
▁45%	-11.3906
▁cast	-11.3906
ADP	-11.3908
iasis	-11.391
CAT	-11.3911
ute	-11.3914
▁oxytocin	-11.3914
▁splice	-11.3915
▁creation	-11.3915
▁hypertrophic	-11.3916
▁negligible	-11.3919
▁foundation	-11.392
▁Skin	-11.3921
▁rad	-11.3921
▁scenario	-11.3921
▁refer	-11.3922
selectin	-11.3924
▁attributes	-11.3924
▁mtDNA	-11.3928
▁FP	-11.3929
▁inactivated	-11.393
2.0	-11.3937
▁enhancer	-11.3937
nar	-11.3937
▁7.4	-11.3939
▁Han	-11.3939
▁FC	-11.3939
▁linking	-11.3939
▁sulphate	-11.3942
▁haemorrhage	-11.3942
lated	-11.3943
scopy	-11.3944
▁hold	-11.3946
▁oligosaccharide	-11.3946
125	-11.395
ico	-11.3954
-22	-11.3954
rio	-11.3955
PAGE	-11.3956
▁spreading	-11.3956
don	-11.3956
phospho	-11.3958
▁PCI	-11.3958
▁polyethylene	-11.3958
cytochemical	-11.3962
▁homes	-11.3962
▁4.8	-11.3964
rot	-11.3964
▁benzene	-11.3964
549	-11.3964
▁balanced	-11.3964
unt	-11.3965
▁paralysis	-11.3967
oids	-11.3967
cyte	-11.3969
▁CXCR	-11.3971
▁ALS	-11.3972
▁harmful	-11.3972
▁CpG	-11.3975
economic	-11.3977
▁SK	-11.3978
▁urethral	-11.398
▁erosion	-11.3982
▁geriatric	-11.3982
SCC	-11.3984
ini	-11.3988
value	-11.3989
▁sagittal	-11.399
▁Prior	-11.399
▁luciferase	-11.399
▁Subsequently	-11.3991
scopic	-11.3991
▁anticoagulation	-11.3991
itic	-11.3993
▁paraffin	-11.3994
phil	-11.3996
▁manifested	-11.3998
▁desirable	-11.3998
▁hydration	-11.4001
▁sigma	-11.4002
▁excised	-11.4002
▁Virus	-11.4004
▁leucine	-11.4005
▁(22	-11.4005
▁deleterious	-11.4006
▁detrimental	-11.4006
▁Classification	-11.4006
▁alternate	-11.4007
▁genera	-11.4007
▁compromise	-11.4011
▁Par	-11.4011
▁dominated	-11.4014
▁th	-11.4016
pping	-11.4017
▁([	-11.4017
▁reciprocal	-11.402
▁RD	-11.4022
▁export	-11.4023
membrane	-11.4024
▁grades	-11.4025
▁Hodgkin	-11.4025
VS	-11.4025
▁documentation	-11.4025
▁orders	-11.4025
2.4	-11.4026
och	-11.4029
release	-11.403
6.6%	-11.4032
▁herb	-11.4033
ara	-11.4033
▁cholecystectomy	-11.4034
▁disparities	-11.4034
▁infancy	-11.4034
▁stimulatory	-11.4034
▁16%	-11.4035
▁Tc	-11.4037
▁ischaemic	-11.4038
▁FEV	-11.4038
▁rhinitis	-11.4038
electric	-11.404
target	-11.404
-200	-11.4042
▁residence	-11.4042
▁insert	-11.4042
▁Induction	-11.4045
▁you	-11.4049
ery	-11.4051
▁Ri	-11.4052
tive	-11.4053
Ga	-11.4055
lt	-11.4055
HCC	-11.4056
▁top	-11.4057
▁proof	-11.406
fi	-11.4062
era	-11.4063
▁digit	-11.4064
▁presentations	-11.4064
▁organizational	-11.4066
▁Complex	-11.4068
Upon	-11.4068
4.3	-11.4068
▁Grade	-11.4068
▁regularly	-11.4069
▁ser	-11.4069
tru	-11.4071
pressure	-11.4074
▁transcriptome	-11.4075
▁max	-11.4078
der	-11.408
oscopy	-11.4081
▁ends	-11.4081
plasm	-11.4081
ESS	-11.4082
▁Systemic	-11.4083
▁recurrences	-11.4084
▁BI	-11.4086
▁nocturnal	-11.4087
▁prototype	-11.4088
▁epileptic	-11.4091
▁Ka	-11.4091
▁entirely	-11.4099
▁alive	-11.4101
▁circulatory	-11.4102
▁photosynthetic	-11.4103
▁glycosylation	-11.4104
BB	-11.4104
bromo	-11.4106
▁br	-11.4106
▁su	-11.4107
▁possesses	-11.4109
▁0.02)	-11.411
▁septum	-11.4111
Leu	-11.4113
▁accidents	-11.4117
▁delays	-11.4118
temporal	-11.4123
▁interplay	-11.4124
He	-11.4126
▁litter	-11.4127
5.8	-11.4127
▁circuits	-11.4128
▁Young	-11.4132
▁angiographic	-11.4133
▁grass	-11.4134
rest	-11.4135
▁hypoglycemia	-11.4135
administered	-11.4135
ius	-11.4137
▁catalysis	-11.4139
▁osteotomy	-11.414
▁Service	-11.414
UM	-11.4143
ake	-11.4143
];	-11.4143
(-1).	-11.4143
▁PLA	-11.4144
▁solely	-11.4147
▁fluoro	-11.4151
▁discomfort	-11.4152
▁Form	-11.4152
▁osteoclast	-11.4153
▁patches	-11.4154
ition	-11.4156
▁arachidonic	-11.4158
▁osteosarcoma	-11.416
▁subpopulations	-11.4163
▁cooperative	-11.4164
eli	-11.4165
carbon	-11.4168
▁BW	-11.4169
▁instances	-11.417
4.2%	-11.4172
bul	-11.4173
third	-11.4174
▁mechanics	-11.4175
▁vasculature	-11.4176
▁grading	-11.4176
▁intoxication	-11.4176
▁benzo	-11.4181
▁assumptions	-11.4182
▁Natural	-11.4184
▁Randomized	-11.4185
▁title	-11.4188
▁implementing	-11.4189
▁therapeutics	-11.4191
att	-11.4192
▁hydrogel	-11.4194
evoked	-11.4196
▁acidosis	-11.4198
▁reservoir	-11.4198
▁os	-11.4198
▁myco	-11.4198
4.6%	-11.42
▁tibia	-11.42
benzo	-11.4203
SMA	-11.4204
▁brains	-11.4207
▁FE	-11.4207
▁solitary	-11.4209
▁biosynthetic	-11.4209
▁LP	-11.421
RH	-11.4213
▁periodontitis	-11.4213
5.7	-11.4213
▁interventional	-11.4214
▁supernatant	-11.4218
▁babies	-11.4225
▁histidine	-11.4225
▁Loss	-11.4227
▁suicidal	-11.4228
▁microtubules	-11.4229
▁British	-11.4229
cyto	-11.423
por	-11.423
▁NCT	-11.4236
enzyme	-11.4236
AX	-11.4239
▁RB	-11.424
▁medullary	-11.424
▁ta	-11.424
▁port	-11.424
4.8%	-11.4243
ein	-11.4246
▁terminus	-11.4246
▁epsilon	-11.4247
3.2%	-11.425
▁Letter	-11.4254
▁San	-11.4255
cular	-11.4255
▁strict	-11.4258
Li	-11.4262
ventricular	-11.4264
▁illnesses	-11.4265
▁nephrectomy	-11.4266
Delta	-11.4266
▁twins	-11.4267
=5	-11.4268
▁Tr	-11.4269
▁grouped	-11.4269
lock	-11.427
▁Considering	-11.427
▁cava	-11.4271
▁react	-11.4271
50%	-11.4273
▁tightly	-11.428
ki	-11.4281
▁functionality	-11.4281
▁Psycho	-11.4282
▁Red	-11.4283
ductive	-11.4287
▁cytomegalovirus	-11.4287
▁biphasic	-11.4287
▁today	-11.4287
▁Nor	-11.4288
▁ethnicity	-11.429
rine	-11.429
space	-11.429
▁oncogenic	-11.4292
▁malnutrition	-11.4295
▁ha	-11.4297
SU	-11.43
tom	-11.43
▁underlie	-11.4302
▁dihydro	-11.4303
Barr	-11.4305
▁postulated	-11.4307
▁implies	-11.4312
▁necessarily	-11.4312
▁angular	-11.4312
▁lab	-11.4312
▁muscarinic	-11.4315
▁fruits	-11.4318
▁radiography	-11.4318
IQR	-11.432
▁confer	-11.432
▁disk	-11.4322
▁module	-11.4322
▁micelles	-11.4323
▁Baseline	-11.4324
▁wider	-11.4325
▁survive	-11.4329
▁pertussis	-11.433
▁simply	-11.4332
7.8%	-11.4333
Ser	-11.4333
▁normo	-11.4336
▁phone	-11.4336
▁Late	-11.4337
▁your	-11.4338
gov	-11.4338
▁laparotomy	-11.434
▁QT	-11.434
▁stochastic	-11.4341
que	-11.4341
▁battery	-11.4345
▁65%	-11.4345
mod	-11.4347
6.6	-11.4348
cross	-11.435
troph	-11.4351
rel	-11.4354
3.7%	-11.4357
▁nanotubes	-11.4359
▁argue	-11.436
▁carbonyl	-11.4362
oste	-11.4363
KI	-11.4364
▁amniotic	-11.4367
▁Indeed	-11.437
▁agree	-11.4371
▁Pe	-11.4372
▁1:1	-11.4373
saccharide	-11.4375
hl	-11.4378
IGF	-11.438
▁Relative	-11.438
▁curvature	-11.4382
amb	-11.4388
▁neutropenia	-11.4391
▁tetracycline	-11.4391
proliferative	-11.4391
GFP	-11.4394
▁epidemiologic	-11.4395
10-	-11.4395
▁victims	-11.4396
▁permits	-11.4399
vid	-11.44
▁1986	-11.4401
▁Unit	-11.4401
▁expiratory	-11.4401
therapeutic	-11.4401
▁Samples	-11.4407
▁adenine	-11.4408
▁0.75	-11.441
▁mucin	-11.4412
▁Å	-11.4414
▁rheumatic	-11.4414
▁pyramidal	-11.4414
Gal	-11.4414
▁strengths	-11.4416
temperature	-11.4416
-29	-11.4419
apoptotic	-11.4419
4.7%	-11.4421
atter	-11.4422
2.8%	-11.4423
▁Mexico	-11.4424
▁23%	-11.4424
Akt	-11.4425
▁stand	-11.4425
▁PAR	-11.4426
▁subclinical	-11.4426
▁Dental	-11.4427
WI	-11.4428
▁sand	-11.4428
IO	-11.4431
plasma	-11.4431
▁mirror	-11.4432
▁fructose	-11.4434
▁Function	-11.4436
▁corresponded	-11.4436
▁Nuclear	-11.4437
▁Common	-11.4437
cortical	-11.4438
▁correspond	-11.4439
terminus	-11.4441
▁neutron	-11.4441
▁sputum	-11.4441
▁signature	-11.4445
ah	-11.4446
ya	-11.4447
▁prostatectomy	-11.4448
▁robotic	-11.4448
vers	-11.4449
▁IF	-11.445
▁APC	-11.4454
▁HepG	-11.4455
▁toxicities	-11.4455
▁preserve	-11.4455
▁psychometric	-11.4458
4.6	-11.4458
▁Cyto	-11.4464
▁designing	-11.4464
fo	-11.4464
▁comorbid	-11.4465
▁collaborative	-11.4466
ast	-11.4466
fect	-11.4467
▁audio	-11.447
-450	-11.447
▁lidocaine	-11.447
▁physicochemical	-11.447
▁Fourteen	-11.447
clamp	-11.4472
gr	-11.4474
dihydroxy	-11.4474
▁tomato	-11.4475
aspartate	-11.4475
=0.02	-11.4475
▁(1.0	-11.4475
▁stock	-11.4476
▁j	-11.4477
▁lasting	-11.4478
▁definitions	-11.4482
▁nest	-11.4482
▁Yet	-11.4483
scope	-11.4483
▁stepwise	-11.4484
own	-11.4485
3.9	-11.4487
▁tick	-11.449
▁insects	-11.4492
▁Complications	-11.4493
tron	-11.4494
1.7%	-11.4494
standard	-11.4495
▁BE	-11.4495
▁schizophrenic	-11.4495
▁siblings	-11.4496
▁sa	-11.4496
oides	-11.4498
▁fabrication	-11.4499
▁oriented	-11.4499
▁Analyses	-11.45
NN	-11.4502
▁BCG	-11.4503
▁physically	-11.4503
▁metallic	-11.4504
▁corticosterone	-11.4505
▁die	-11.4506
6.4%	-11.4507
▁metformin	-11.4508
▁peritonitis	-11.4508
▁Controlled	-11.4509
▁postural	-11.4512
photon	-11.4512
MAP	-11.4513
▁4.7	-11.4513
▁Light	-11.4513
▁Previously	-11.4513
▁hemodynamics	-11.4516
sy	-11.4518
▁NB	-11.452
▁Collectively	-11.4521
▁permit	-11.4522
RG	-11.4522
▁niche	-11.4523
▁vol	-11.4525
▁Bacterial	-11.4527
▁histopathology	-11.4529
▁sharing	-11.4531
▁medicines	-11.4531
static	-11.4531
esis	-11.4532
▁filters	-11.4533
▁ethics	-11.4534
rh	-11.4536
▁afford	-11.4537
9.5%	-11.4537
▁totally	-11.4538
▁Stroke	-11.4538
▁fMRI	-11.4539
▁presynaptic	-11.454
▁MCP	-11.454
pyr	-11.4544
▁LI	-11.4545
▁anaemia	-11.4547
▁segregation	-11.4549
▁1987	-11.455
AH	-11.455
▁(23	-11.4551
▁Biological	-11.4552
▁cleaved	-11.4554
▁exponential	-11.4558
▁xenograft	-11.4559
▁cardiomyocytes	-11.456
0.5%	-11.4561
▁skill	-11.4565
▁antiserum	-11.4565
▁monolayers	-11.4567
labelled	-11.4568
6.3%	-11.4568
▁infusions	-11.4569
▁linearly	-11.4569
TK	-11.457
gent	-11.4571
▁adenylate	-11.4571
tocompatibility	-11.4572
operated	-11.4573
▁catalysts	-11.4574
apo	-11.4574
▁NOS	-11.4576
▁docking	-11.4576
sia	-11.4578
▁deposited	-11.4578
▁TI	-11.458
▁fitted	-11.4581
fil	-11.4584
5.4	-11.4585
tonic	-11.4585
▁skeleton	-11.4585
▁Hydro	-11.4586
fos	-11.4588
▁ND	-11.4593
▁freezing	-11.4594
▁ecosystem	-11.4594
▁21%	-11.4596
net	-11.4597
▁Peripheral	-11.4597
▁(+/-	-11.4598
▁adduct	-11.4599
▁congestive	-11.4601
▁exclude	-11.4603
▁0.10	-11.4608
▁plots	-11.461
▁hypothyroidism	-11.461
▁cooperation	-11.4611
▁FDG	-11.4612
▁assembled	-11.4612
sim	-11.4614
/2	-11.4614
▁mismatch	-11.4615
TOF	-11.4615
▁mosquito	-11.4616
cycl	-11.4616
-0.2	-11.4619
6.8	-11.4624
▁stain	-11.4628
▁asthmatic	-11.4629
rap	-11.463
▁uric	-11.4634
▁104	-11.4636
lit	-11.4637
,"	-11.4637
▁Trials	-11.4637
▁utilize	-11.4638
▁scarce	-11.464
Ts	-11.4643
plate	-11.4644
Fs	-11.4644
lines	-11.4647
lio	-11.4647
4.5%	-11.4647
▁rely	-11.4647
parathyroidism	-11.4649
logist	-11.4649
▁paid	-11.4651
▁entities	-11.4653
7.3%	-11.4653
▁immunostaining	-11.4654
morph	-11.4658
qu	-11.466
icul	-11.4661
▁VT	-11.4661
▁trajectories	-11.4661
▁blinded	-11.4663
▁realistic	-11.4663
▁cyclooxygenase	-11.4666
▁Myo	-11.4666
Ad	-11.4666
assembly	-11.4666
blast	-11.4667
▁VE	-11.4667
▁City	-11.4669
stat	-11.467
▁rec	-11.467
▁satisfied	-11.467
sive	-11.4674
GF	-11.4674
centric	-11.4675
▁herbal	-11.4675
▁Stat	-11.4676
▁Sea	-11.4676
▁hybrids	-11.4678
myo	-11.468
eat	-11.4681
▁expensive	-11.4683
▁depended	-11.4686
▁parasitic	-11.4687
▁anomaly	-11.4687
▁boundaries	-11.4688
▁transferase	-11.4689
▁libraries	-11.4691
▁Mal	-11.4692
▁NGF	-11.4693
▁Level	-11.4694
▁Iran	-11.4694
omb	-11.4696
dent	-11.47
▁velocities	-11.47
cost	-11.4701
▁covalent	-11.4702
▁excitability	-11.4704
depth	-11.4706
Hodgkin	-11.471
▁0.5%	-11.4713
7.8	-11.4713
Hz	-11.4714
▁0.12	-11.472
▁cultivation	-11.472
▁glycemic	-11.4721
▁disappearance	-11.4722
▁compensatory	-11.4726
▁relies	-11.4726
▁thickening	-11.4726
▁arrhythmia	-11.4727
▁PAH	-11.4729
hip	-11.4729
▁vertebrates	-11.4734
▁necessity	-11.4734
▁1/2	-11.4735
▁dodecyl	-11.4735
▁name	-11.4735
▁Qu	-11.4736
▁Dynamic	-11.4737
▁haemoglobin	-11.4739
▁avoiding	-11.4739
-3,	-11.4741
▁amongst	-11.4742
▁bulb	-11.4743
▁innervation	-11.4743
▁morphogenesis	-11.4743
restricted	-11.4745
rr	-11.4746
▁simplified	-11.4748
▁stenting	-11.4749
▁imp	-11.4749
▁.05)	-11.4756
▁labour	-11.4756
▁operate	-11.4758
osine	-11.4758
4.2	-11.4759
▁conducting	-11.476
▁obstetric	-11.4761
▁ovulation	-11.4765
▁suspicion	-11.4765
▁IGFBP	-11.4765
4.1	-11.4766
▁aerosol	-11.4769
▁Dys	-11.477
▁generates	-11.4775
▁deficiencies	-11.4776
▁(21	-11.4777
▁antipsychotic	-11.4777
▁sun	-11.4782
▁QOL	-11.4783
▁transferrin	-11.4783
▁nodule	-11.4785
▁leukemic	-11.4788
▁initiating	-11.479
▁board	-11.4792
ame	-11.4792
▁isomers	-11.4792
▁helps	-11.4793
▁livers	-11.4795
▁Elevated	-11.4795
▁pass	-11.4795
▁dyes	-11.4797
ja	-11.4797
▁maximize	-11.4799
▁scalp	-11.48
▁consist	-11.4801
nm	-11.4802
▁mega	-11.4803
▁covariates	-11.4804
sed	-11.4807
▁concordance	-11.4808
globin	-11.4809
▁ANOVA	-11.481
▁responsibility	-11.4812
fluorouracil	-11.4816
▁thorough	-11.4819
▁Sixteen	-11.4821
▁parenchyma	-11.4822
▁hydrocarbons	-11.4822
▁PDGF	-11.4823
▁OT	-11.4825
▁mediastinal	-11.4826
▁prostheses	-11.4826
▁constitutively	-11.4826
▁Register	-11.4834
kappa	-11.4834
▁Endoscopic	-11.4835
▁fur	-11.4835
▁gains	-11.4836
▁coordinate	-11.4838
idin	-11.4838
▁22%	-11.4839
7.0	-11.4839
atom	-11.484
8.9%	-11.484
▁Diseases	-11.484
GN	-11.4841
retin	-11.4841
▁proteomic	-11.4842
▁nephro	-11.4844
▁da	-11.4844
fish	-11.4845
8.8%	-11.4845
▁contractility	-11.4847
rist	-11.4848
▁Leishmania	-11.4849
ching	-11.485
(2),	-11.485
mers	-11.485
amycin	-11.485
ened	-11.4851
▁psychotic	-11.4852
▁constitutes	-11.4852
▁duplex	-11.4853
▁cholangio	-11.4856
▁yielding	-11.4856
")	-11.4859
▁octa	-11.486
▁War	-11.4861
▁deduced	-11.4861
▁synchronous	-11.4862
▁fo	-11.4862
▁outpatients	-11.4863
▁tamoxifen	-11.4863
▁statin	-11.4863
CMV	-11.4865
1.3%	-11.4865
▁adoption	-11.4866
▁FI	-11.4867
6.4	-11.4869
▁von	-11.487
▁war	-11.4871
▁seek	-11.4871
▁surviving	-11.4871
rom	-11.4873
▁AB	-11.4875
800	-11.4876
▁febrile	-11.4876
▁gelatin	-11.4877
▁smear	-11.4877
▁incorporate	-11.4879
▁Cerebral	-11.4882
hexa	-11.4884
▁columns	-11.4884
▁den	-11.4885
ks	-11.4885
▁.05).	-11.4888
component	-11.4891
▁pharmacologic	-11.4892
▁FF	-11.4893
5.2%	-11.4894
hex	-11.4899
▁rib	-11.49
▁ALL	-11.49
IE	-11.4904
▁preferential	-11.4904
▁deal	-11.4904
▁Pd	-11.4905
▁properly	-11.4905
DG	-11.4907
▁HM	-11.4907
▁BR	-11.4908
▁Obesity	-11.4909
▁aggregate	-11.491
▁note	-11.4912
ik	-11.4912
▁intellectual	-11.4913
▁sedentary	-11.4913
▁neurones	-11.4913
▁employees	-11.4915
Au	-11.4916
CNS	-11.4916
▁vasculitis	-11.4918
▁lymphoblastic	-11.4918
▁endocytosis	-11.4919
immuno	-11.4919
illi	-11.492
10%	-11.4923
ett	-11.4924
▁1985	-11.4926
▁anions	-11.4928
▁spiral	-11.4932
lectrocardiogram	-11.4937
▁El	-11.4937
pers	-11.494
isomer	-11.4943
surgery	-11.4943
▁("	-11.4943
▁ischaemia	-11.4944
▁titer	-11.4945
▁neuropathic	-11.4945
▁Swedish	-11.4948
▁Sal	-11.4949
▁Mediterranean	-11.4949
-199	-11.495
inal	-11.495
▁representations	-11.4951
ALL	-11.4951
▁Average	-11.4953
▁tailored	-11.4953
▁broader	-11.4954
▁amplitudes	-11.4955
▁CCK	-11.4957
▁psychiatry	-11.496
(0)	-11.4964
▁transit	-11.4965
▁resultant	-11.4965
▁106	-11.4966
▁lives	-11.4966
▁Failure	-11.4966
▁Support	-11.4966
▁colonoscopy	-11.4967
▁sensitized	-11.497
▁freeze	-11.497
▁ataxia	-11.497
▁AMI	-11.4972
▁trust	-11.4972
8(+)	-11.4973
exchange	-11.4973
▁torque	-11.4975
inated	-11.4979
▁trabecular	-11.4979
▁internalization	-11.498
▁(60	-11.4982
org	-11.4983
▁thromboembolism	-11.4984
▁precisely	-11.4987
▁caution	-11.4988
▁missed	-11.4989
▁persist	-11.4989
▁subtle	-11.499
ash	-11.4991
osin	-11.4994
zi	-11.4994
▁modeled	-11.4997
▁BL	-11.4999
box	-11.5001
KA	-11.5001
▁aetiology	-11.5001
▁Investigation	-11.5002
average	-11.5006
▁van	-11.5008
▁cornea	-11.5008
Based	-11.5008
▁iNOS	-11.5009
▁hydroxylase	-11.5009
bit	-11.5014
▁5.2	-11.5014
▁RBC	-11.5015
▁Interaction	-11.5015
▁importantly	-11.5016
▁hypothesize	-11.5017
▁Cre	-11.5019
nu	-11.5021
▁choices	-11.5023
RK	-11.5025
▁eosinophils	-11.5028
▁thirty	-11.5028
▁waiting	-11.5029
▁immunologic	-11.5029
rain	-11.503
Hb	-11.5031
▁CAP	-11.5032
▁Surprisingly	-11.5033
▁basement	-11.5034
▁selecting	-11.5037
TIC	-11.5037
▁13-	-11.5037
nc	-11.504
▁dimers	-11.5041
▁quantitation	-11.5041
7.6	-11.5043
tide	-11.5043
▁geo	-11.5044
▁programmed	-11.5046
▁operon	-11.5046
▁5)	-11.5047
yne	-11.5048
sus	-11.5048
▁Regional	-11.505
▁attended	-11.505
▁presumed	-11.505
▁Radiation	-11.505
▁diarrhoea	-11.505
▁Auto	-11.5051
-(2-	-11.5052
ev	-11.5053
]).	-11.5055
▁atmosphere	-11.5059
▁ir	-11.506
▁Environmental	-11.5061
▁teams	-11.5062
3.9%	-11.5062
▁graph	-11.5063
▁phorbol	-11.5063
tt	-11.5065
▁scanner	-11.5065
▁specialists	-11.5067
▁ACL	-11.5067
▁normalization	-11.507
▁enteric	-11.5072
▁Critical	-11.5077
Ig	-11.5078
dic	-11.5078
▁EV	-11.5079
VC	-11.5079
▁endometrium	-11.5082
iness	-11.5082
▁adrenergic	-11.5083
▁preceded	-11.5084
▁titration	-11.5086
▁http	-11.5089
MW	-11.509
▁microRNA	-11.5092
▁0.003)	-11.5096
▁blunt	-11.5096
▁divergent	-11.51
▁kit	-11.51
▁prolapse	-11.51
▁ceramic	-11.51
▁engage	-11.5101
▁Simultaneous	-11.5102
1.8%	-11.5104
130	-11.5105
7.7%	-11.5106
▁nu	-11.5108
▁existed	-11.5108
▁Platelet	-11.5108
plex	-11.5108
▁antenatal	-11.5108
▁hemolytic	-11.5109
eta	-11.511
▁rising	-11.511
▁river	-11.5111
0;	-11.5113
▁intramolecular	-11.5116
▁sarcoidosis	-11.5117
▁perturbation	-11.5119
▁800	-11.5119
ono	-11.5122
ony	-11.5122
▁commitment	-11.5122
▁exploring	-11.5122
▁DT	-11.5124
6.3	-11.5124
sperm	-11.5126
3.1%	-11.5126
endo	-11.5129
▁Hepatitis	-11.5131
▁sonography	-11.5131
▁desorption	-11.5132
5.4%	-11.5133
regulatory	-11.5133
▁proline	-11.5133
-50	-11.5135
Bu	-11.5138
5.3	-11.514
▁conditional	-11.514
tocopherol	-11.514
▁localize	-11.5142
vel	-11.5142
lactam	-11.5142
6.2	-11.5143
▁scheduled	-11.5146
6.2%	-11.5151
▁career	-11.5152
▁weaning	-11.5152
fur	-11.5154
▁methane	-11.516
exposure	-11.5161
▁Exp	-11.5162
▁Injury	-11.5162
▁bath	-11.5167
NL	-11.5167
ema	-11.5167
▁silicone	-11.5172
▁Sexual	-11.5176
▁seminal	-11.5176
/5	-11.5177
▁Dose	-11.5177
▁OSA	-11.518
▁wine	-11.518
nor	-11.518
▁partition	-11.5181
DCs	-11.5183
estradiol	-11.5183
▁fitting	-11.5183
8.0	-11.5184
liquid	-11.5184
▁102	-11.5185
▁VIII	-11.5187
globulin	-11.5187
▁vibrational	-11.5187
▁ICP	-11.5191
▁stigma	-11.5194
▁ageing	-11.5195
days	-11.5195
▁proliferating	-11.5196
lasting	-11.5198
▁unnecessary	-11.5199
segment	-11.5199
▁adjunct	-11.5199
Pr	-11.52
thi	-11.5202
▁Longitudinal	-11.5203
▁LM	-11.5204
▁valves	-11.5207
▁retain	-11.5207
▁allergens	-11.5209
rea	-11.5209
▁Lymph	-11.521
▁cyclosporine	-11.521
▁LR	-11.521
▁advancement	-11.5213
▁Biochemical	-11.5215
▁tomographic	-11.5217
▁extracorporeal	-11.5217
▁ozone	-11.5217
ves	-11.5218
▁12,	-11.5219
▁timely	-11.5222
▁alternatives	-11.5223
▁proteome	-11.5223
ement	-11.5223
▁counting	-11.5225
▁measles	-11.5226
▁sero	-11.5227
▁24%	-11.5227
▁reinforcement	-11.5228
▁Ste	-11.5231
color	-11.5232
▁Respiratory	-11.5235
▁subarachnoid	-11.5235
▁explicit	-11.5237
▁fl	-11.5238
▁ileum	-11.5239
▁formalin	-11.524
lc	-11.524
using	-11.5243
bar	-11.5245
antigen	-11.5246
▁recover	-11.5246
▁aspartate	-11.5248
▁checkpoint	-11.525
▁trigeminal	-11.5253
▁Asp	-11.5254
mycin	-11.5254
▁suppressing	-11.5254
rm	-11.5254
ont	-11.5257
▁draw	-11.5258
fu	-11.5259
▁phosphor	-11.5259
▁NIH	-11.526
▁hyperthermia	-11.5262
▁parotid	-11.5262
▁Logistic	-11.5262
▁texture	-11.5263
omic	-11.5263
▁monoamine	-11.5268
quinone	-11.5268
EBP	-11.5269
oy	-11.5269
▁assume	-11.5269
▁Lactobacillus	-11.5271
▁8,	-11.5271
▁Wa	-11.5271
▁disordered	-11.5273
▁distinction	-11.5274
▁Isolated	-11.5276
TER	-11.5276
▁revised	-11.5277
▁131	-11.5278
lot	-11.5278
DX	-11.5279
▁PAI	-11.528
▁CCL	-11.5281
▁reactor	-11.5285
▁diagnostics	-11.5287
▁preeclampsia	-11.5287
phy	-11.5288
uli	-11.5288
score	-11.5288
iva	-11.5288
▁spaces	-11.5294
▁bony	-11.5295
1.6%	-11.5295
▁neoadjuvant	-11.5299
▁cortico	-11.5303
▁vi	-11.5304
▁hamsters	-11.5307
▁fluorescein	-11.5307
▁enlarged	-11.5308
▁neurite	-11.531
administration	-11.5311
2.2%	-11.5311
▁Muscle	-11.5312
▁vir	-11.5313
▁funding	-11.5314
▁attenuates	-11.5315
cip	-11.5316
▁regenerative	-11.5317
▁germination	-11.5321
oyl	-11.5322
▁ureter	-11.5327
▁CHO	-11.5328
▁loops	-11.533
▁odor	-11.533
▁captured	-11.5331
▁ascertain	-11.5333
lium	-11.5334
▁horse	-11.5334
▁belong	-11.5337
▁Bax	-11.5339
▁thymic	-11.5341
▁Dutch	-11.5341
ther	-11.5341
▁crest	-11.5345
lea	-11.5346
▁acquire	-11.5347
suppression	-11.5347
▁colloidal	-11.5348
Jun	-11.5349
▁ma	-11.5351
implant	-11.5352
versus	-11.5354
3.4%	-11.5359
uro	-11.5362
▁arousal	-11.5366
▁55%	-11.5366
▁testes	-11.5369
▁sparse	-11.5372
▁batch	-11.5373
▁Osteo	-11.5375
hypo	-11.5375
▁condensation	-11.5376
8.2%	-11.5377
▁removing	-11.5377
▁0.02).	-11.5379
▁MTT	-11.5381
▁Cases	-11.5382
▁27%	-11.5389
-0.4	-11.5389
▁Ra	-11.5391
▁karyotype	-11.5391
▁allelic	-11.5392
3.5%	-11.5392
AST	-11.5393
▁Receptor	-11.5395
pA	-11.5395
ional	-11.5397
dependently	-11.5404
▁Laparoscopic	-11.5404
▁radionuclide	-11.5404
▁freshwater	-11.5405
▁style	-11.5406
ko	-11.5406
FO	-11.5408
▁seedlings	-11.5408
▁drought	-11.5409
▁endurance	-11.5409
▁develops	-11.541
current	-11.5412
▁WITH	-11.5414
▁burns	-11.5414
▁disposition	-11.5415
▁transiently	-11.5415
▁NPC	-11.5416
UP	-11.5417
▁Bay	-11.5418
▁melanogaster	-11.5418
oli	-11.5419
▁moral	-11.542
▁diaphragm	-11.5423
▁Female	-11.5423
▁superfamily	-11.5423
▁foam	-11.5425
WA	-11.5426
pha	-11.5427
▁blend	-11.5428
NU	-11.5428
▁coat	-11.5429
▁manganese	-11.5432
▁microbiological	-11.5433
▁gentamicin	-11.5437
SY	-11.5439
istopathological	-11.5439
▁configurations	-11.544
▁rectum	-11.5441
▁stopped	-11.5442
5.8%	-11.5442
icus	-11.5443
strain	-11.5443
tim	-11.5444
▁Km	-11.5445
150	-11.5445
▁GFP	-11.5446
▁grew	-11.5446
▁Present	-11.5446
▁practitioner	-11.545
▁specified	-11.545
▁laparoscopy	-11.5451
▁lysozyme	-11.5451
▁Epstein	-11.5451
cardiographic	-11.5453
▁Lipid	-11.5454
▁consumers	-11.5455
▁Rec	-11.5455
▁projects	-11.5459
▁(≥	-11.546
▁Introduction	-11.546
▁competing	-11.546
expressed	-11.5462
take	-11.5462
which	-11.5463
gy	-11.5464
EO	-11.5464
▁repertoire	-11.5464
▁Continuous	-11.5465
20%	-11.5465
lith	-11.5467
▁stores	-11.5467
rod	-11.5468
▁taxonomic	-11.5469
▁evolving	-11.547
▁whereby	-11.5471
ergic	-11.5472
▁comprises	-11.5472
▁100,000	-11.5473
▁corresponds	-11.5474
leu	-11.5475
▁Pretreatment	-11.5476
umin	-11.5477
▁bottom	-11.5478
▁ligase	-11.5478
9.4%	-11.5479
▁Resistance	-11.5483
×	-11.5486
7.7	-11.5487
▁spacer	-11.5489
▁28%	-11.5492
▁worsening	-11.5492
▁topics	-11.5493
▁telomerase	-11.5497
▁proteolysis	-11.5497
▁failures	-11.5498
kar	-11.55
▁ease	-11.55
▁anthropometric	-11.5506
▁GD	-11.5507
▁wire	-11.5507
ook	-11.5509
▁histories	-11.5511
▁polarized	-11.5511
▁dielectric	-11.5513
▁neurotrophic	-11.5513
immune	-11.5515
▁lactic	-11.5515
▁WM	-11.5516
▁treadmill	-11.5516
▁ORF	-11.5518
▁occupation	-11.5519
▁qu	-11.552
▁Thirteen	-11.552
▁Work	-11.5523
ulating	-11.5524
sphere	-11.5525
▁Smad	-11.5529
▁occasionally	-11.5529
▁intakes	-11.5531
mTc	-11.5534
▁reality	-11.5534
▁Exercise	-11.5534
▁Sex	-11.5535
TRA	-11.5538
ering	-11.5539
▁contexts	-11.5539
▁composites	-11.554
6.9	-11.554
▁pelvis	-11.554
▁rhythms	-11.5542
▁vulgaris	-11.5544
Cd	-11.5544
▁familiar	-11.5547
▁chlor	-11.5549
mination	-11.555
▁Neo	-11.5553
▁tonic	-11.5554
▁boost	-11.5555
▁thaliana	-11.5558
▁protecting	-11.556
0.9%	-11.556
▁Enhanced	-11.5561
oriented	-11.5562
1.1%	-11.5562
▁Mr	-11.557
▁macroscopic	-11.5571
6.9%	-11.5571
▁primates	-11.5571
▁Nutrition	-11.5575
3]	-11.5575
▁peroxisome	-11.5577
▁linker	-11.5578
IgG	-11.5581
5,000	-11.5584
▁SG	-11.5585
▁GL	-11.5585
▁Te	-11.5586
ö	-11.5586
▁register	-11.5588
▁aluminum	-11.5589
▁integrate	-11.5589
▁intramuscular	-11.559
ope	-11.559
▁hepatoma	-11.5591
inate	-11.5592
ott	-11.5593
facial	-11.5594
▁QTL	-11.5594
▁modifying	-11.5595
▁Anxiety	-11.5595
mRNA	-11.5595
pulse	-11.5598
ben	-11.5598
EST	-11.5599
WM	-11.5602
▁PPI	-11.5603
▁leadership	-11.5605
▁undetectable	-11.5605
▁filament	-11.5609
▁equine	-11.5611
▁dextran	-11.5611
▁sickle	-11.5611
2.3%	-11.5612
▁laminin	-11.5613
▁Rating	-11.5615
▁favourable	-11.5615
▁str	-11.5619
▁whilst	-11.5619
▁indoor	-11.562
▁labelling	-11.5621
harm	-11.5624
▁Str	-11.5625
▁pools	-11.5626
transfer	-11.5627
xyl	-11.5629
▁oils	-11.5632
▁impair	-11.5635
spinal	-11.5637
▁beef	-11.5639
▁brachial	-11.5642
inducing	-11.5642
(10)	-11.5648
▁vegetables	-11.5649
▁osteoblast	-11.565
(3	-11.565
ju	-11.5651
▁103	-11.5651
ue	-11.5651
▁illustrates	-11.5652
▁Ultrasound	-11.5652
SK	-11.5654
▁5.3	-11.5654
▁emphasized	-11.5656
▁swimming	-11.5657
UTR	-11.566
opa	-11.5661
▁cathepsin	-11.5661
arian	-11.5664
▁pyr	-11.5664
12)	-11.5665
▁inositol	-11.567
▁5.4	-11.567
▁Medicaid	-11.5671
calc	-11.5672
corrected	-11.5675
▁Behavior	-11.5675
▁5.6	-11.5677
▁Partial	-11.5677
▁VII	-11.5681
▁Experience	-11.5682
▁keep	-11.5684
lia	-11.5686
helix	-11.5686
▁Overexpression	-11.5686
5.9	-11.5687
iae	-11.5688
▁Characteristics	-11.5689
ocytic	-11.5689
▁curcumin	-11.569
▁amorphous	-11.569
110	-11.5691
polymerase	-11.5691
▁VL	-11.5695
ave	-11.5696
rating	-11.5698
▁antidepressants	-11.5704
▁ciprofloxacin	-11.5704
▁sorting	-11.5704
90%	-11.5704
▁neuroimaging	-11.5705
▁VAS	-11.5706
▁progressed	-11.5707
sil	-11.5709
11)	-11.5713
▁Double	-11.5714
Pa	-11.5716
doped	-11.5718
HPV	-11.5718
▁interfaces	-11.572
azo	-11.572
▁Animals	-11.5721
▁cobalt	-11.5722
macrophage	-11.5723
▁isometric	-11.5723
▁stressors	-11.5725
▁shapes	-11.5726
▁ketamine	-11.5728
▁brush	-11.5729
IST	-11.5729
▁bite	-11.5733
▁ureteral	-11.5733
▁satellite	-11.5734
▁cy	-11.5736
ligand	-11.5736
▁Hispanic	-11.5736
▁contaminants	-11.5738
8.7%	-11.574
▁36%	-11.5741
▁quick	-11.5741
▁calls	-11.5742
▁-3	-11.5744
▁ubiquitous	-11.5745
power	-11.5747
▁Myocardial	-11.5747
▁cGMP	-11.5748
▁clustered	-11.5749
▁chapter	-11.5752
iodo	-11.5753
▁transported	-11.5756
▁km	-11.5757
▁anisotropy	-11.5757
AGE	-11.5757
uter	-11.5758
▁1,000	-11.5759
har	-11.576
▁hydrolase	-11.5762
▁tape	-11.5762
kinetic	-11.5763
put	-11.5764
▁waters	-11.5764
▁RH	-11.5765
▁19%	-11.5765
▁releasing	-11.5765
ENT	-11.5765
ACS	-11.5766
▁monocytogenes	-11.5766
BH	-11.5768
vul	-11.5768
chromatic	-11.577
▁radiologic	-11.577
▁trap	-11.5771
▁92%	-11.5773
DN	-11.5773
▁neurotoxicity	-11.5773
▁Med	-11.5774
▁tremor	-11.5776
▁keratin	-11.578
▁ni	-11.5781
▁Though	-11.5781
▁Monitoring	-11.5782
7.4	-11.5786
▁50-	-11.5789
ovirus	-11.5792
7.4%	-11.5792
tric	-11.5795
▁Stimulation	-11.5795
▁17-	-11.5795
UG	-11.5796
▁notably	-11.58
VL	-11.5801
aemic	-11.5801
▁195	-11.5801
▁NADH	-11.5802
▁rhesus	-11.5805
▁trajectory	-11.5805
▁troponin	-11.5805
▁assignment	-11.5805
▁Improved	-11.5807
▁instrumental	-11.5808
▁hematologic	-11.5809
▁Whole	-11.5812
▁retinoic	-11.5812
▁accompanying	-11.5813
▁sedimentation	-11.5814
▁necrotic	-11.5814
arch	-11.5815
▁conformations	-11.5816
fla	-11.5817
▁observers	-11.5818
▁ABC	-11.5819
▁quarter	-11.582
▁38%	-11.5821
prim	-11.5823
▁LDH	-11.5823
001	-11.5823
▁Lewis	-11.5824
▁updated	-11.5826
▁pol	-11.5826
noise	-11.5827
▁Demographic	-11.5829
▁discrepancy	-11.5829
▁Flu	-11.5829
▁engaged	-11.5831
benz	-11.5832
posed	-11.5833
▁approval	-11.5834
▁bending	-11.5834
▁Lu	-11.5834
enes	-11.5835
ove	-11.5837
acc	-11.5838
▁sides	-11.5838
▁Prognostic	-11.5838
▁Hepatic	-11.5838
▁homocysteine	-11.584
▁sister	-11.584
▁(+	-11.5841
▁centrifugation	-11.5843
▁26%	-11.5843
glycoprotein	-11.5844
=6	-11.5844
▁homogeneity	-11.5848
abdominal	-11.5849
10,	-11.5849
▁radiology	-11.5849
▁si	-11.585
▁IVF	-11.5851
▁repetition	-11.5855
▁osteoblasts	-11.5857
▁Republic	-11.5858
XR	-11.5859
urin	-11.5861
▁bicarbonate	-11.5868
▁Cellular	-11.5868
▁GE	-11.5868
▁hole	-11.5869
▁Ir	-11.587
sulf	-11.5873
▁analogous	-11.5874
▁technic	-11.5875
▁star	-11.5875
▁island	-11.5876
▁rotavirus	-11.5877
TEM	-11.5877
▁dependency	-11.5878
▁undergraduate	-11.5878
▁indeed	-11.5878
6.1%	-11.588
cutaneous	-11.588
▁Cx	-11.5883
shell	-11.5883
▁acetylation	-11.5886
▁microfluidic	-11.5887
NMR	-11.5888
ram	-11.5889
▁acutely	-11.589
tile	-11.589
nis	-11.5893
▁potentiated	-11.5895
▁capacities	-11.5896
▁inheritance	-11.5896
▁sciatic	-11.5896
▁Computed	-11.5896
▁rot	-11.5897
▁conflicting	-11.5898
▁integrating	-11.5898
▁60-	-11.5898
ments	-11.5899
house	-11.5901
▁utero	-11.5901
▁silent	-11.5902
▁hematological	-11.5902
▁osteogenic	-11.5902
▁conference	-11.5907
SW	-11.5908
alin	-11.5911
infrared	-11.5911
▁glyco	-11.5912
▁knock	-11.5915
anal	-11.5915
▁mTOR	-11.5915
▁vitreous	-11.5916
▁bacteriophage	-11.5916
▁HBsAg	-11.5918
organic	-11.592
omer	-11.5921
▁catecholamine	-11.5925
resolved	-11.5929
▁organelles	-11.5931
▁mimicking	-11.5931
▁RC	-11.5932
stom	-11.5933
8.8	-11.5934
▁tr	-11.5938
▁equi	-11.5939
▁thalamus	-11.594
▁heterodimer	-11.594
ulate	-11.5941
▁Physicians	-11.5943
▁capsid	-11.5944
180	-11.5944
lex	-11.5945
▁cytoskeletal	-11.5945
▁Internal	-11.5946
▁67%	-11.5949
▁Intervention	-11.5949
▁Combination	-11.595
▁ward	-11.595
▁Disorders	-11.5951
▁alert	-11.5954
▁altitude	-11.5955
ets	-11.5957
+,	-11.596
▁angiogenic	-11.596
rrh	-11.596
▁packing	-11.596
enriched	-11.596
cum	-11.5962
CAD	-11.5963
▁inability	-11.5966
▁Force	-11.5968
▁political	-11.5969
▁pneumococcal	-11.5969
▁analytes	-11.5975
▁1.00	-11.5976
▁4.9	-11.5976
▁expanding	-11.5976
9.6%	-11.5977
▁Open	-11.5978
▁telomere	-11.5979
▁nicotinic	-11.5979
▁nucleoside	-11.598
media	-11.5981
established	-11.5982
lysin	-11.5984
▁transducer	-11.5984
▁chlorophyll	-11.5985
▁mandatory	-11.5989
▁APP	-11.599
0.6%	-11.599
gro	-11.5993
▁cow	-11.5994
▁periphery	-11.5994
▁nose	-11.5995
▁characterizing	-11.5995
=0.03	-11.5997
▁coherent	-11.5999
transplantation	-11.5999
cine	-11.6003
▁indexes	-11.6003
▁proteomics	-11.6005
NV	-11.6007
▁extensor	-11.6009
▁HDAC	-11.6009
chol	-11.601
▁chip	-11.6018
▁Calcium	-11.6018
▁dedicated	-11.6019
▁RCC	-11.6022
Cy	-11.6025
▁111	-11.6026
kb	-11.6028
▁108	-11.6028
▁master	-11.603
▁prion	-11.6033
ject	-11.6033
8.1%	-11.6034
▁neovascular	-11.6036
▁relapsed	-11.6037
▁veterinary	-11.6038
unit	-11.6038
▁attentional	-11.604
FD	-11.6041
▁TD	-11.6041
▁5.8	-11.6041
7.2%	-11.6042
arrow	-11.6042
▁duodenum	-11.6043
▁appropriately	-11.6045
▁quenching	-11.6046
▁101	-11.6048
▁inguinal	-11.6048
▁REVIEW	-11.6048
vest	-11.6049
▁reoperation	-11.6051
▁Kingdom	-11.6053
▁encouraging	-11.6053
load	-11.6054
▁teachers	-11.6055
fixed	-11.6059
lab	-11.6059
▁cured	-11.606
9.2%	-11.606
tis	-11.6062
▁affinities	-11.6063
▁dysregulation	-11.6064
-99	-11.6066
0.2	-11.6068
avi	-11.6069
▁Mini	-11.607
▁exercises	-11.6071
▁fossa	-11.6073
Te	-11.6074
GB	-11.6078
▁Dia	-11.6082
▁collecting	-11.6086
▁capillaries	-11.6087
▁reactivation	-11.6088
▁sacrificed	-11.6089
▁11-	-11.609
dys	-11.6091
7.3	-11.6092
▁attained	-11.6093
cephal	-11.6095
▁PDE	-11.6095
8.6	-11.6099
▁Individuals	-11.6099
mark	-11.6102
▁Regarding	-11.6102
▁primate	-11.6103
▁Chem	-11.6105
osome	-11.6105
▁96%	-11.6106
▁orthopedic	-11.6107
▁pouch	-11.6107
▁condom	-11.6107
▁weaker	-11.6108
▁gonad	-11.611
▁Distribution	-11.6112
▁progeny	-11.6112
▁sterile	-11.6112
▁ICAM	-11.6115
1.2%	-11.6118
▁journals	-11.612
▁vacuum	-11.6122
▁leaving	-11.6122
▁anticipated	-11.6125
▁Linear	-11.6125
▁LY	-11.6126
Ar	-11.6127
▁postprandial	-11.6128
▁ox	-11.6129
▁morphologically	-11.6132
▁expectancy	-11.6132
▁Gu	-11.6133
▁modules	-11.6134
▁nasopharyngeal	-11.6137
▁infra	-11.614
▁energetic	-11.614
▁pandemic	-11.6142
omerulonephritis	-11.6142
▁repressor	-11.6144
▁polyacrylamide	-11.6146
▁operator	-11.6149
▁42%	-11.615
▁KO	-11.615
▁Air	-11.6151
ether	-11.6151
stin	-11.6151
▁emphysema	-11.6152
▁dyspnea	-11.6152
▁Notably	-11.6152
carcinoma	-11.6153
▁Associated	-11.6153
▁INTERVENTIONS	-11.6153
▁contextual	-11.6154
▁ACh	-11.6156
▁spores	-11.6157
▁nigra	-11.6157
▁mitosis	-11.6157
acquired	-11.6158
link	-11.6159
▁CAM	-11.6161
▁elusive	-11.6162
▁oxidant	-11.6162
▁supine	-11.6162
▁com	-11.6162
▁5.1	-11.6163
▁Groups	-11.6164
▁Thr	-11.6165
▁endonuclease	-11.6167
▁accessibility	-11.6168
<0.01)	-11.6168
8.4%	-11.6169
▁[2	-11.617
tch	-11.6173
2.4%	-11.6174
cardio	-11.6174
▁29%	-11.6176
▁salmon	-11.6177
▁restenosis	-11.6177
▁radiofrequency	-11.6178
MAPK	-11.6184
▁modulus	-11.6187
▁del	-11.6189
somal	-11.6189
▁dominance	-11.619
▁fibrils	-11.6192
▁0.13	-11.6192
▁biofilms	-11.6193
▁mi	-11.6194
Mn	-11.6195
▁te	-11.6196
▁mammography	-11.6197
▁recycling	-11.6198
▁amines	-11.62
+-	-11.62
Pt	-11.6201
▁overt	-11.6205
▁mucus	-11.6207
▁qualitatively	-11.6208
uri	-11.6209
250	-11.6215
▁Rac	-11.6216
▁closer	-11.6217
▁mineralization	-11.6217
▁lay	-11.6219
5.9%	-11.6221
▁addresses	-11.6222
rgic	-11.6225
▁security	-11.6225
rium	-11.6226
most	-11.6226
▁ducts	-11.623
cardiac	-11.6231
cla	-11.6231
OCT	-11.6233
▁approximate	-11.6234
▁artifacts	-11.6237
▁Bar	-11.6237
▁inpatients	-11.6239
50)	-11.624
▁Gly	-11.6241
scan	-11.6242
▁Reduced	-11.6243
ark	-11.6245
▁acetic	-11.6247
▁impression	-11.6247
▁pole	-11.6248
9.1%	-11.6248
20)	-11.6248
▁histochemical	-11.6248
17)	-11.6248
▁ECM	-11.6251
fiber	-11.6253
olar	-11.6254
▁hCG	-11.6255
5.0%	-11.6255
▁chemokines	-11.6256
▁ACS	-11.6257
▁specialty	-11.6259
eck	-11.626
bed	-11.6261
▁comprise	-11.6262
▁methodologies	-11.6262
plant	-11.6262
▁possessed	-11.6263
▁consciousness	-11.6263
▁32%	-11.6264
▁0.98	-11.6265
▁attenuate	-11.6267
▁anaesthetic	-11.6267
▁Instead	-11.6272
▁restraint	-11.6272
▁serotypes	-11.6273
ace	-11.628
▁anionic	-11.6281
lactic	-11.6282
▁psychotherapy	-11.6283
▁FB	-11.6283
-1),	-11.6284
▁exacerbation	-11.6284
ü	-11.6287
▁narrative	-11.6287
▁ovaries	-11.6287
jun	-11.6287
▁dispersed	-11.6288
centered	-11.6289
▁interpersonal	-11.6293
▁ulceration	-11.6299
tend	-11.63
▁choroidal	-11.6302
▁homolog	-11.6304
hosphodiesterase	-11.6304
▁Nurses	-11.6304
Ns	-11.6307
▁EN	-11.6307
▁Adverse	-11.6308
▁CXCL	-11.6313
lac	-11.6313
▁14-	-11.6314
▁cofactor	-11.6314
ff	-11.6316
▁workshop	-11.6318
▁6.2	-11.6318
▁distinguishing	-11.6318
▁CAT	-11.6319
cet	-11.6319
▁LF	-11.632
⋯	-11.6322
▁senior	-11.6322
▁cotton	-11.6323
▁freedom	-11.6323
▁carp	-11.6324
▁calmodulin	-11.6324
▁tears	-11.6325
FV	-11.6326
▁83%	-11.6327
▁SIGNIFICANCE	-11.6328
▁gliomas	-11.6329
▁metrics	-11.633
▁mes	-11.6331
miR	-11.6334
▁outgrowth	-11.6335
▁anomalous	-11.6338
▁music	-11.6339
▁neuropeptide	-11.6339
each	-11.6339
regulating	-11.6339
0.8%	-11.6341
ocytosis	-11.6341
▁ascorbic	-11.6342
▁efficiencies	-11.6343
sociodemographic	-11.6344
9.9	-11.6345
▁naloxone	-11.6345
▁schemes	-11.6345
▁fentanyl	-11.6346
▁GFR	-11.6348
▁rapamycin	-11.6348
▁excluding	-11.6348
▁canonical	-11.6348
ethanolamine	-11.6352
urg	-11.6352
▁methicillin	-11.6353
Con	-11.6354
▁emptying	-11.6355
▁highlighting	-11.6355
▁EDTA	-11.6358
▁2014.	-11.6359
penta	-11.6362
NOS	-11.6362
vin	-11.6364
meta	-11.6367
ey	-11.6373
▁Eighteen	-11.6373
▁thymidine	-11.6374
▁sugars	-11.6376
▁pathogenicity	-11.6385
▁table	-11.6386
133	-11.6387
▁illumination	-11.6387
injection	-11.6388
▁heavily	-11.6389
▁opposed	-11.639
ites	-11.6395
0.3%	-11.6395
▁Strain	-11.6396
place	-11.6397
▁mel	-11.6397
aortic	-11.6397
via	-11.6398
▁missense	-11.6399
▁cage	-11.6399
▁suppressive	-11.64
UN	-11.6401
▁suspensions	-11.6402
treat	-11.6405
▁globulin	-11.6406
▁branching	-11.6406
disciplinary	-11.6407
▁Ver	-11.6407
▁difficile	-11.6409
PAR	-11.641
▁pharmacodynamic	-11.6414
▁expertise	-11.6415
▁hind	-11.6415
▁po	-11.6416
▁begin	-11.6417
typic	-11.6417
▁decarboxylase	-11.6424
ret	-11.6424
▁QoL	-11.6424
▁shortened	-11.6425
▁silico	-11.6425
▁combat	-11.6426
AO	-11.6428
▁ball	-11.6428
▁Green	-11.643
sexual	-11.643
solid	-11.6433
ivo	-11.6434
▁Mechanisms	-11.6434
▁IMPLICATIONS	-11.6434
phyll	-11.6436
▁germline	-11.6438
▁diploid	-11.6438
tz	-11.6439
▁Region	-11.6443
▁Va	-11.6444
▁Next	-11.6445
▁hydrocephalus	-11.6445
<.001)	-11.6446
▁muco	-11.6448
▁mosaic	-11.6449
LG	-11.645
▁bacteremia	-11.645
▁jaundice	-11.645
cAMP	-11.645
▁Bilateral	-11.645
▁2013.	-11.6451
▁copolymer	-11.6451
05)	-11.6455
▁du	-11.6456
▁SBP	-11.6456
▁fair	-11.6459
▁somatosensory	-11.646
ectin	-11.6465
▁introducing	-11.6465
rop	-11.6468
CHO	-11.647
▁erythro	-11.647
▁hydrocarbon	-11.6471
8.7	-11.6472
▁custom	-11.6472
▁preschool	-11.6472
▁broth	-11.6473
▁solve	-11.6473
▁Du	-11.6473
▁conjugation	-11.6475
▁sponge	-11.6476
▁portions	-11.6476
▁atrium	-11.6476
▁Older	-11.6479
▁province	-11.6479
▁Subsequent	-11.648
▁phen	-11.6482
STAT	-11.6484
ICC	-11.6486
▁ghrelin	-11.6486
▁irrigation	-11.6486
▁EE	-11.6486
▁microns	-11.6488
▁came	-11.6489
▁disturbed	-11.6489
obacter	-11.6489
4]	-11.649
▁sport	-11.6491
thyroid	-11.6491
▁gastrectomy	-11.6491
▁94%	-11.6491
▁123	-11.6492
▁Production	-11.6492
▁generations	-11.6494
onium	-11.6497
▁Pol	-11.6497
processing	-11.6498
typing	-11.6499
PFC	-11.65
▁depleted	-11.6501
receptors	-11.6502
elin	-11.6502
▁impairs	-11.6505
HM	-11.6506
▁suboptimal	-11.6507
turn	-11.6509
1.9%	-11.6509
▁pups	-11.6509
▁proteinase	-11.651
tia	-11.6511
▁IQ	-11.6511
▁computation	-11.6515
▁Eye	-11.652
▁informative	-11.6523
▁triggering	-11.6523
▁clot	-11.6525
itol	-11.6525
▁substitute	-11.6525
oni	-11.6526
▁ADC	-11.6527
▁adherent	-11.6532
▁replicated	-11.6534
0.4%	-11.6534
ali	-11.6541
6.1	-11.6542
▁conform	-11.6543
▁managers	-11.6544
▁Effective	-11.6545
try	-11.6545
ota	-11.6547
▁puberty	-11.6548
ste	-11.6549
cat	-11.6552
▁.01	-11.6552
▁93%	-11.6552
berg	-11.6553
▁1-2	-11.6553
plane	-11.6553
▁traditionally	-11.6553
▁Spinal	-11.6557
▁2012.	-11.6557
9.3%	-11.6558
▁bactericidal	-11.6558
▁dressing	-11.6558
▁carbohydrates	-11.6559
▁88%	-11.656
▁prolongation	-11.656
▁surgeries	-11.6569
▁undergoes	-11.6569
▁nodular	-11.6569
▁Mann	-11.657
▁homogenates	-11.6571
9.7%	-11.6571
▁droplets	-11.6574
▁monomers	-11.6578
▁1-3	-11.6578
species	-11.6578
uck	-11.6578
▁109	-11.658
▁hyperactivity	-11.6583
▁Pseudo	-11.6584
▁forebrain	-11.6584
▁uncomplicated	-11.6584
cytochemistry	-11.6584
▁discontinued	-11.6585
Ra	-11.6588
7.9	-11.6588
▁virulent	-11.6588
axis	-11.6588
▁Mexican	-11.6589
▁0.95	-11.659
tig	-11.659
15)	-11.6591
arc	-11.6592
NM	-11.6592
enter	-11.6593
VAS	-11.6593
formation	-11.6597
evi	-11.6598
odi	-11.6598
▁explores	-11.66
▁administrative	-11.66
▁immunogenicity	-11.6601
▁households	-11.6602
▁Sm	-11.6602
izable	-11.6602
8.9	-11.6608
▁bank	-11.6609
▁MUC	-11.661
▁eco	-11.661
▁8.0	-11.661
▁BT	-11.6611
▁encapsulated	-11.6612
gan	-11.6616
▁86%	-11.6617
▁pharmacology	-11.6617
▁Active	-11.6617
▁problematic	-11.6617
▁Src	-11.6617
other	-11.6617
▁Nigeria	-11.6619
▁otitis	-11.6621
Mg	-11.6621
▁Sn	-11.6626
www	-11.6626
▁subcutaneously	-11.6628
▁ecosystems	-11.663
▁spasm	-11.6631
cysteine	-11.6632
▁discussions	-11.6633
ribose	-11.6635
mis	-11.6635
osomes	-11.664
9.0	-11.6641
▁collective	-11.6641
▁Guidelines	-11.6642
▁realized	-11.6645
▁pet	-11.6645
such	-11.6645
▁8.5	-11.6645
▁1970	-11.6646
▁PMA	-11.6647
▁diode	-11.6647
▁originated	-11.6648
▁volumetric	-11.6648
▁verapamil	-11.6649
▁formulated	-11.6649
atur	-11.6656
▁ZnO	-11.6656
▁posttraumatic	-11.6656
▁habitats	-11.6657
▁spectrometer	-11.6657
▁PTEN	-11.6658
▁flies	-11.6659
(3+)	-11.6661
▁consumer	-11.6663
tropin	-11.6663
pulmonary	-11.6664
▁gondii	-11.6668
▁neighborhood	-11.6668
get	-11.6669
▁Good	-11.667
▁tuning	-11.667
olol	-11.6672
▁ALT	-11.6672
▁98%	-11.6672
▁latest	-11.6675
▁potato	-11.6678
7.1	-11.6681
ending	-11.6683
▁scientists	-11.6683
▁nationwide	-11.6684
▁electromagnetic	-11.6684
▁ultimate	-11.6687
▁cruciate	-11.6689
▁ce	-11.6689
▁Fi	-11.6689
▁ve	-11.6691
▁theoretically	-11.6692
▁GPs	-11.6695
▁cities	-11.6695
▁morphometric	-11.6699
Val	-11.67
▁PAF	-11.6702
ages	-11.6702
9.8	-11.6704
▁technological	-11.6704
▁atropine	-11.6705
Es	-11.6705
HER	-11.6705
▁comp	-11.6708
mortem	-11.6712
aries	-11.6712
▁Epidemiology	-11.6715
▁associate	-11.6715
▁residential	-11.6716
▁CBF	-11.6718
▁controversy	-11.672
existing	-11.672
eria	-11.6721
▁conception	-11.6721
▁2010.	-11.6722
spectrum	-11.6723
▁farms	-11.6724
▁Rab	-11.6726
▁EMT	-11.6726
▁genotyped	-11.6727
cele	-11.6729
▁starvation	-11.6731
▁vagal	-11.6731
▁additionally	-11.6733
▁che	-11.6734
9.6	-11.6735
▁broadly	-11.6735
▁prime	-11.6737
DMA	-11.6738
ifer	-11.674
bil	-11.6741
eurodegeneration	-11.6742
▁transfusions	-11.6742
▁favour	-11.6743
▁opioids	-11.6743
transcriptional	-11.6743
▁statins	-11.6744
▁1,2-	-11.6745
▁flexor	-11.6746
▁versatile	-11.6746
▁eyelid	-11.6747
▁sta	-11.6748
7.9%	-11.6748
▁gases	-11.6748
▁Plant	-11.6748
▁dealing	-11.6749
albumin	-11.6749
▁caring	-11.6752
2.1%	-11.6752
▁oncogene	-11.6752
▁vas	-11.6753
ploid	-11.6753
▁goats	-11.6753
ract	-11.6753
▁Once	-11.6754
agin	-11.6756
▁gen	-11.6759
▁BK	-11.6761
▁OM	-11.6762
▁Abeta	-11.6763
oke	-11.6764
▁charges	-11.6765
ectomized	-11.6765
illa	-11.6766
spin	-11.6766
▁rDNA	-11.6768
▁RNase	-11.6769
▁plain	-11.6769
cultural	-11.677
(-2)	-11.6772
xin	-11.6777
▁mutual	-11.6777
▁115	-11.6778
▁sorption	-11.6782
▁desire	-11.6782
▁daytime	-11.6782
date	-11.6783
▁43%	-11.6783
▁haemo	-11.6784
table	-11.6785
▁Formation	-11.6787
▁elemental	-11.6788
▁Trypanosoma	-11.6789
▁newer	-11.6789
▁stably	-11.6791
▁0.14	-11.6793
converting	-11.6793
▁raises	-11.6794
▁Home	-11.6794
▁moieties	-11.6794
pathic	-11.6796
ction	-11.6796
relative	-11.6798
var	-11.6798
▁acne	-11.6799
▁Cap	-11.6799
▁44%	-11.68
▁10(-6)	-11.6801
▁screws	-11.6801
▁agencies	-11.6805
tyrosine	-11.6807
▁benz	-11.6808
14)	-11.6809
▁HU	-11.6809
/20	-11.681
▁Interleukin	-11.681
adrenal	-11.681
▁penile	-11.6811
▁HTLV	-11.6812
▁Chlamydia	-11.6815
▁nifedipine	-11.6815
▁intolerance	-11.6816
▁Ob	-11.6816
▁Super	-11.682
562	-11.6823
▁op	-11.6826
▁Glucose	-11.6826
4.9%	-11.6828
▁vaso	-11.6829
▁psychopathology	-11.6831
▁stressed	-11.6832
burg	-11.6836
101	-11.6836
▁dying	-11.6837
▁iodide	-11.6837
▁determines	-11.6838
▁purine	-11.6839
ethane	-11.6839
bol	-11.6839
▁NI	-11.684
á	-11.6842
▁vegetation	-11.6842
▁signatures	-11.6843
▁Har	-11.6843
▁soy	-11.6847
core	-11.6847
▁Phylogenetic	-11.6847
▁sigmoid	-11.6848
▁combine	-11.6848
inger	-11.685
▁Cer	-11.6852
ire	-11.6852
▁Cohort	-11.6853
▁impulse	-11.6853
▁measurable	-11.6853
▁6.3	-11.6856
▁DF	-11.6858
▁AKI	-11.6859
oscopic	-11.6859
80%	-11.686
▁suited	-11.6861
▁pneumo	-11.6862
▁translated	-11.6863
echo	-11.6864
auto	-11.6864
last	-11.6865
▁Gr	-11.6865
1(	-11.6866
▁PU	-11.6867
▁exclusive	-11.6867
▁Training	-11.6869
▁opiate	-11.6869
transformed	-11.6869
▁glucocorticoids	-11.687
training	-11.687
degree	-11.6872
▁Province	-11.6874
▁Gastric	-11.6874
rays	-11.6875
synaptic	-11.6877
▁Klebsiella	-11.6879
▁Rat	-11.688
▁acceptability	-11.688
▁procedural	-11.688
ROC	-11.6881
▁pupil	-11.6881
structure	-11.6882
▁tubulin	-11.6883
location	-11.6885
ception	-11.6885
lf	-11.6885
▁instrumentation	-11.6888
▁EX	-11.689
▁TEM	-11.689
30%	-11.6891
MHC	-11.6892
▁antisera	-11.6895
▁Mon	-11.6896
▁ventilatory	-11.6898
▁VIP	-11.6898
▁cha	-11.6898
▁(28	-11.6899
ys	-11.6901
▁accelerate	-11.6902
▁wing	-11.6905
bro	-11.6905
▁dispersal	-11.6906
▁thinking	-11.6909
▁bring	-11.6909
contrast	-11.691
▁RCTs	-11.691
ele	-11.6913
▁Mis	-11.6914
dominant	-11.6915
St	-11.6915
▁gastrin	-11.6917
▁instance	-11.692
TU	-11.6922
izer	-11.6924
▁Tg	-11.6929
allo	-11.693
hood	-11.693
ected	-11.6931
▁IX	-11.6933
▁dysphagia	-11.6933
onin	-11.6933
7.2	-11.6935
▁nematode	-11.6936
▁parenchymal	-11.6939
▁Animal	-11.6941
van	-11.6943
▁haemodynamic	-11.6944
▁tablet	-11.6944
philic	-11.6946
▁GLUT	-11.6947
▁initiatives	-11.6948
▁Record	-11.6949
▁unfavorable	-11.6949
▁figures	-11.6949
▁suspended	-11.6953
▁cruzi	-11.6955
▁midline	-11.6955
▁sustainable	-11.6956
size	-11.6956
▁interfacial	-11.6956
▁Extra	-11.6956
management	-11.6958
▁Lip	-11.696
▁Intravenous	-11.696
▁deoxy	-11.6962
dium	-11.6964
MH	-11.6964
▁biogenesis	-11.6964
▁cirrhotic	-11.6964
▁Centre	-11.6965
▁lambs	-11.6966
vasoconstriction	-11.6967
9.7	-11.6968
▁Mu	-11.6969
ati	-11.6969
▁prey	-11.697
▁Percutaneous	-11.6971
▁0.16	-11.6971
▁RSV	-11.6971
▁7.2	-11.6971
5.2	-11.6972
stable	-11.6973
▁Morphological	-11.6973
▁Weight	-11.6978
▁replicate	-11.6978
protection	-11.6982
diphenyl	-11.6982
verse	-11.6984
Asp	-11.6987
▁sentinel	-11.6987
▁guanine	-11.6988
▁31%	-11.6989
▁breed	-11.6989
▁buccal	-11.699
hybrid	-11.699
▁alleviate	-11.6991
ESI	-11.6992
▁REGISTRATION	-11.6992
▁0.97	-11.6993
▁works	-11.6994
▁cannabinoid	-11.6995
Lys	-11.6997
▁navigation	-11.6998
ARS	-11.6999
reduction	-11.7002
▁nested	-11.7002
▁DHA	-11.7003
▁stabilizing	-11.7008
▁MTX	-11.7008
▁Pregnancy	-11.7009
▁residency	-11.7009
deca	-11.7009
▁steel	-11.701
6/	-11.701
hyper	-11.7012
bus	-11.7013
▁caregiver	-11.7013
▁EMBASE	-11.7014
▁semiconductor	-11.7014
▁entropy	-11.7014
5.1%	-11.7017
▁scavenging	-11.7018
▁functionalized	-11.7019
▁Pearson	-11.7019
zy	-11.702
▁Pyr	-11.7021
▁coastal	-11.7023
anth	-11.7024
▁naive	-11.7024
▁purity	-11.7025
ball	-11.7027
▁amyloidosis	-11.7027
▁pharmacists	-11.7028
▁symmetric	-11.7029
▁med	-11.703
▁Danish	-11.703
▁atresia	-11.703
▁discharges	-11.7031
TBI	-11.7032
▁leaflet	-11.7035
▁240	-11.7037
isopropyl	-11.704
▁chloroplast	-11.7041
(2)(	-11.7045
▁plantar	-11.7046
▁People	-11.7047
<0.001	-11.7048
▁covalently	-11.7049
▁recommendation	-11.7051
▁occipital	-11.7052
▁Numerous	-11.7052
▁CRT	-11.7053
▁explaining	-11.7054
▁dentate	-11.7054
▁sick	-11.7055
Tc	-11.7055
▁Ly	-11.7056
lowering	-11.706
acy	-11.7061
▁alloy	-11.7061
fast	-11.7063
▁physiologically	-11.7065
▁displaced	-11.7065
▁IB	-11.7066
analyses	-11.7067
▁pesticide	-11.7067
gra	-11.7067
floxacin	-11.7068
trial	-11.7069
6]	-11.7071
acu	-11.7071
▁directional	-11.7072
▁evolve	-11.7072
▁cannabis	-11.7074
▁kill	-11.7074
▁Enzyme	-11.7074
▁disaster	-11.7074
chor	-11.7075
▁GT	-11.7078
▁Vibrio	-11.7079
▁NPY	-11.708
OV	-11.7081
▁helped	-11.7082
▁deeper	-11.7083
▁16-	-11.7084
sal	-11.7084
▁thigh	-11.7084
▁RELEVANCE	-11.7085
▁nosocomial	-11.7085
▁beats	-11.7085
ival	-11.7087
male	-11.7088
shi	-11.7088
▁sulfide	-11.7089
RBC	-11.709
▁ileal	-11.709
dione	-11.7092
▁lot	-11.7093
▁specificities	-11.7097
▁(0.4	-11.7097
▁Gra	-11.7098
▁dried	-11.7099
▁FO	-11.7099
▁Streptomyces	-11.7101
▁prerequisite	-11.7101
▁specification	-11.7102
▁ciliary	-11.7103
▁Key	-11.7104
▁menopause	-11.7105
ellar	-11.7105
▁ensemble	-11.7107
▁smears	-11.7108
▁RPE	-11.7109
▁bla	-11.7113
▁Rb	-11.7114
lon	-11.7115
-(4-	-11.7117
▁exit	-11.7117
0.7%	-11.7118
▁FD	-11.7118
cocci	-11.712
▁5.7	-11.712
▁calcitonin	-11.7121
▁inexpensive	-11.7123
▁predisposition	-11.7123
trioventricular	-11.7123
1*	-11.7124
▁dec	-11.7126
genome	-11.7127
▁Der	-11.7127
▁pose	-11.7128
▁prescriptions	-11.7128
▁couple	-11.7129
terdisciplinary	-11.7129
▁Genomic	-11.7129
▁porphyrin	-11.713
▁Preparation	-11.713
VF	-11.713
▁determinations	-11.7132
▁flavonoids	-11.7132
▁electrons	-11.7134
▁longevity	-11.7134
▁baby	-11.7134
▁carbonate	-11.7134
▁legs	-11.7135
▁TRIAL	-11.7136
▁sn	-11.7136
osyl	-11.714
▁Cat	-11.7143
<0.001),	-11.7144
shift	-11.7147
▁71%	-11.7148
▁emotions	-11.7148
▁serving	-11.7149
▁Beta	-11.715
▁Meanwhile	-11.7151
▁manufacturing	-11.7151
▁erythropoietin	-11.7151
▁indole	-11.7152
Formula	-11.7154
pir	-11.7154
▁82%	-11.7155
▁syphilis	-11.7156
▁0.11	-11.7156
▁intracerebral	-11.7157
icin	-11.7157
▁reconstituted	-11.7157
ok	-11.7158
▁Malignant	-11.7162
▁harmonic	-11.7162
▁dr	-11.7162
▁inverted	-11.7164
▁implying	-11.7165
equ	-11.7165
▁Membrane	-11.7167
▁Neonatal	-11.7167
▁leave	-11.7167
▁Laser	-11.7168
▁cultivars	-11.7168
foot	-11.7168
▁insomnia	-11.7172
▁GABAergic	-11.7173
▁Symptoms	-11.7174
▁6.8	-11.7175
▁penetrating	-11.7175
acet	-11.7175
▁neurogenesis	-11.7175
▁Prostate	-11.7176
▁oedema	-11.7178
▁instruction	-11.7179
nano	-11.7182
▁raising	-11.7184
duct	-11.7184
▁37%	-11.7185
▁hepatectomy	-11.7186
nom	-11.7186
8.3	-11.7187
▁straight	-11.7189
▁(26	-11.7189
▁readmission	-11.719
▁1984	-11.719
▁CsA	-11.719
epithelial	-11.7192
▁afferents	-11.7192
▁(1.5	-11.7193
▁carboxy	-11.7195
▁deleted	-11.7195
ech	-11.7195
▁confounders	-11.7195
▁intrahepatic	-11.7196
▁monomeric	-11.7197
interquartile	-11.7197
ada	-11.7198
pump	-11.72
galactosidase	-11.72
▁bur	-11.7201
▁converting	-11.7201
▁outlined	-11.7202
wa	-11.7203
▁reside	-11.7203
▁import	-11.7203
gastr	-11.7209
▁Oncology	-11.7211
▁Ed	-11.7214
▁(-)-	-11.7215
▁alkali	-11.7216
-4,	-11.7216
▁Mc	-11.7217
ection	-11.7217
▁Fluorescence	-11.7217
▁elution	-11.7217
▁0.18	-11.7219
▁2-3	-11.7223
▁Homo	-11.7224
▁repeatedly	-11.7226
▁supernatants	-11.7226
▁NM	-11.7228
▁fill	-11.7228
▁amphetamine	-11.7229
DQ	-11.723
▁erythroid	-11.723
▁galactose	-11.7231
▁uniformly	-11.7232
UA	-11.7232
▁78%	-11.7236
dh	-11.7241
umab	-11.7242
severe	-11.7244
magnetic	-11.7245
▁Behavioral	-11.7245
▁GLP	-11.7245
ny	-11.7246
retest	-11.7248
▁melting	-11.725
undifferentiated	-11.725
rig	-11.7251
▁Computer	-11.7251
▁nucleo	-11.7254
rab	-11.7255
▁nephritis	-11.7256
▁secrete	-11.7256
▁0.85	-11.7258
gas	-11.7258
▁concentrate	-11.7258
HLA	-11.7261
▁capsaicin	-11.7261
▁occult	-11.7261
genomic	-11.7262
▁0.96	-11.7263
▁[14	-11.7264
▁maturity	-11.7267
▁symptomatology	-11.7267
8.4	-11.7269
▁EL	-11.7271
▁searches	-11.7271
▁eosinophil	-11.7272
▁Kidney	-11.7272
▁gastritis	-11.7272
▁oestrogen	-11.7273
▁PCOS	-11.7273
▁MU	-11.7273
pen	-11.7275
▁emulsion	-11.7276
▁beams	-11.7276
▁cigarettes	-11.7276
sheet	-11.7277
▁retroperitoneal	-11.7278
rant	-11.7278
▁fascia	-11.7281
thr	-11.7283
▁TIMP	-11.7284
▁granulosa	-11.7284
▁microRNAs	-11.7284
▁PCP	-11.7287
▁AMPK	-11.7287
▁Eastern	-11.7289
▁gating	-11.729
▁lessons	-11.729
▁molars	-11.7294
▁adenocarcinomas	-11.7294
nol	-11.7295
▁Hetero	-11.7297
▁continuum	-11.7297
▁trachea	-11.7302
▁extends	-11.7302
pus	-11.7303
▁increment	-11.7304
▁Significantly	-11.7304
▁earliest	-11.7306
otoxin	-11.7306
▁DU	-11.7309
esteem	-11.7311
▁allosteric	-11.7311
▁scavenger	-11.7312
Tyr	-11.7315
▁dehydration	-11.7318
▁diabetics	-11.7318
IX	-11.7319
liter	-11.7321
▁FDA	-11.7322
▁opportunistic	-11.7323
▁RESULT	-11.7326
▁mix	-11.7327
▁JAK	-11.7327
▁ACC	-11.7327
TIVE	-11.7328
▁fe	-11.7331
pain	-11.7334
-28	-11.7334
▁Student	-11.7335
▁dendrites	-11.7336
▁washing	-11.7336
etin	-11.7336
▁freely	-11.7337
▁medically	-11.7337
▁autoimmunity	-11.7339
▁continuity	-11.7339
▁benchmark	-11.7339
itu	-11.7341
▁obviously	-11.7344
▁govern	-11.7344
▁CHF	-11.7347
icidal	-11.7349
PTH	-11.735
▁Immune	-11.7351
▁nitr	-11.7352
▁Ap	-11.7354
▁latex	-11.7355
hydroxylase	-11.7356
▁97%	-11.7357
▁combines	-11.736
▁xenografts	-11.7361
model	-11.7362
GlcNAc	-11.7362
▁exploited	-11.7363
Cys	-11.7364
▁olive	-11.7364
▁CONTEXT	-11.7367
▁calculating	-11.7367
▁committee	-11.7367
5.1	-11.7369
thymidine	-11.7373
▁6)	-11.7373
tag	-11.7374
eng	-11.7375
▁postmortem	-11.7376
differentiated	-11.7378
creat	-11.7378
▁groove	-11.7379
▁offering	-11.7381
▁panic	-11.7381
▁ruptured	-11.7384
▁Recombinant	-11.7384
▁triphosphate	-11.7385
▁multifocal	-11.7385
▁orbit	-11.7386
▁Lack	-11.7386
▁48%	-11.7393
photo	-11.7395
▁encounter	-11.7395
▁EVIDENCE	-11.7396
▁(13)	-11.7398
▁classify	-11.7403
▁chloro	-11.7403
▁NG	-11.7404
child	-11.7405
Ru	-11.7405
▁dermato	-11.7406
▁knees	-11.7406
▁antagonism	-11.7407
▁paternal	-11.7407
▁Fisher	-11.7408
▁modulators	-11.7409
peritoneal	-11.741
▁Comparing	-11.7412
▁10(-5)	-11.7413
▁Campylobacter	-11.7415
▁thrombotic	-11.7417
▁individualized	-11.7417
-43	-11.7418
▁(2-	-11.742
An	-11.742
▁consequent	-11.7421
▁casein	-11.7421
pot	-11.7422
▁2015.	-11.7422
▁exp	-11.7423
5'-	-11.7424
▁positioned	-11.7425
somes	-11.7426
▁ja	-11.7427
▁0.93	-11.7428
▁unexplained	-11.7429
plasia	-11.7432
▁antiplatelet	-11.7432
9.8%	-11.7432
cholesterolemia	-11.7436
▁0.005)	-11.7439
▁faecal	-11.7439
▁vesicular	-11.744
stitution	-11.7441
▁outline	-11.7446
▁leprosy	-11.7446
▁flav	-11.7448
▁alkaloids	-11.7449
▁Dec	-11.745
▁LL	-11.745
▁FH	-11.7451
▁ROC	-11.7451
posing	-11.7453
▁epithelia	-11.7454
homo	-11.7455
▁characters	-11.7455
▁transitional	-11.7455
(7)	-11.7455
embedded	-11.7457
▁facilitation	-11.7458
▁render	-11.7458
eu	-11.7461
▁Hand	-11.7461
▁packed	-11.7462
▁anorexia	-11.7463
▁Fetal	-11.7466
▁tubule	-11.7466
ama	-11.7467
▁(35	-11.7469
▁poultry	-11.7469
shock	-11.7469
▁neutralization	-11.7471
▁payment	-11.7475
▁scoliosis	-11.7475
▁branched	-11.7479
▁52%	-11.7481
chron	-11.7481
▁exam	-11.7482
▁lac	-11.7484
▁PCA	-11.7485
▁everyday	-11.7486
▁adversely	-11.7489
▁ribosome	-11.7489
acute	-11.7491
▁arranged	-11.7492
▁convergence	-11.7492
▁inferred	-11.7492
▁Advances	-11.7492
pes	-11.7493
▁uncontrolled	-11.7494
dt	-11.7496
▁cytological	-11.7496
▁eastern	-11.7496
dro	-11.7496
▁99%	-11.7499
orin	-11.75
▁searching	-11.7504
▁allografts	-11.7504
ifies	-11.7504
▁displaying	-11.7505
105	-11.7508
reg	-11.7509
▁big	-11.751
atin	-11.7511
TL	-11.7511
ria	-11.7513
▁immunoblotting	-11.7515
▁groundwater	-11.7516
lysine	-11.7519
angiotensin	-11.752
CAR	-11.7521
▁explains	-11.7525
HBV	-11.7526
▁constipation	-11.7526
▁ecology	-11.7527
▁arc	-11.7527
▁Ter	-11.7527
ona	-11.7528
▁Phys	-11.7529
▁substantia	-11.753
▁housing	-11.7532
▁occasions	-11.7532
cam	-11.7532
▁METHODOLOGY	-11.7532
▁2011.	-11.7535
chrom	-11.7536
▁mutational	-11.7537
GSH	-11.7537
ostomy	-11.7537
▁Negative	-11.7537
▁Abnormal	-11.7537
▁Thyroid	-11.7538
▁pericardial	-11.7538
▁PHA	-11.7539
[...]
